<pad>	0
<unk>	0
<s>	0
</s>	0
en	-0
er	-1
in	-2
▁t	-3
ch	-4
▁a	-5
▁d	-6
▁w	-7
▁s	-8
▁th	-9
nd	-10
ie	-11
es	-12
▁i	-13
at	-14
on	-15
▁m	-16
as	-17
an	-18
re	-19
▁the	-20
▁b	-21
▁h	-22
st	-23
it	-24
▁o	-25
▁e	-26
ll	-27
▁u	-28
▁g	-29
ou	-30
or	-31
ich	-32
ar	-33
▁f	-34
▁in	-35
▁I	-36
ing	-37
▁n	-38
▁S	-39
is	-40
le	-41
▁c	-42
▁p	-43
▁die	-44
te	-45
▁A	-46
▁to	-47
▁v	-48
ir	-49
▁ein	-50
al	-51
▁of	-52
▁and	-53
om	-54
ig	-55
▁l	-56
▁W	-57
ed	-58
▁k	-59
▁und	-60
▁be	-61
▁z	-62
un	-63
ut	-64
ur	-65
us	-66
▁das	-67
el	-68
ion	-69
▁y	-70
▁T	-71
et	-72
▁that	-73
ent	-74
▁D	-75
▁M	-76
ro	-77
em	-78
▁ha	-79
▁we	-80
ere	-81
ic	-82
▁you	-83
ra	-84
▁B	-85
▁E	-86
▁der	-87
▁wh	-88
eh	-89
ve	-90
ten	-91
▁is	-92
▁wir	-93
▁zu	-94
ow	-95
▁ist	-96
il	-97
ter	-98
▁it	-99
▁G	-100
ein	-101
ot	-102
▁an	-103
icht	-104
am	-105
gen	-106
ber	-107
ach	-108
ier	-109
de	-110
lich	-111
ben	-112
ind	-113
se	-114
▁so	-115
sch	-116
uf	-117
▁U	-118
ge	-119
▁re	-120
all	-121
▁F	-122
▁K	-123
ke	-124
▁ich	-125
▁ver	-126
ol	-127
▁un	-128
▁on	-129
▁P	-130
▁es	-131
im	-132
▁was	-133
▁L	-134
hr	-135
ct	-136
ay	-137
▁And	-138
▁Th	-139
ung	-140
▁H	-141
▁st	-142
den	-143
▁al	-144
ver	-145
▁er	-146
▁N	-147
▁this	-148
▁sie	-149
▁den	-150
▁Sie	-151
um	-152
▁-	-153
and	-154
▁j	-155
ür	-156
ck	-157
id	-158
uch	-159
nen	-160
▁all	-161
ld	-162
sen	-163
▁nicht	-164
op	-165
be	-166
ation	-167
▁dass	-168
▁von	-169
ce	-170
▁"	-171
▁--	-172
▁for	-173
▁R	-174
▁eine	-175
ann	-176
▁ab	-177
▁Und	-178
▁als	-179
▁r	-180
▁auf	-181
▁im	-182
▁do	-183
▁V	-184
th	-185
ell	-186
der	-187
est	-188
ill	-189
ag	-190
▁mit	-191
ith	-192
▁li	-193
ff	-194
ess	-195
ly	-196
ht	-197
▁are	-198
ally	-199
▁man	-200
▁sch	-201
▁J	-202
▁wie	-203
▁se	-204
isch	-205
enn	-206
ist	-207
▁war	-208
▁ne	-209
ul	-210
aus	-211
▁uns	-212
▁go	-213
▁have	-214
▁with	-215
▁So	-216
▁le	-217
▁C	-218
ers	-219
▁they	-220
au	-221
kt	-222
men	-223
▁sich	-224
▁he	-225
ust	-226
▁mo	-227
▁can	-228
eit	-229
▁as	-230
▁Z	-231
▁Ich	-232
▁O	-233
out	-234
os	-235
▁wor	-236
ern	-237
ab	-238
▁pro	-239
ant	-240
ad	-241
ib	-242
▁what	-243
▁sind	-244
über	-245
▁me	-246
ön	-247
▁1	-248
▁dies	-249
und	-250
▁com	-251
ies	-252
oo	-253
ehr	-254
▁at	-255
ft	-256
▁haben	-257
ould	-258
▁sp	-259
pp	-260
▁für	-261
▁In	-262
▁ge	-263
▁St	-264
ort	-265
ehen	-266
▁about	-267
▁hat	-268
▁sh	-269
▁ex	-270
▁fr	-271
▁not	-272
we	-273
▁aus	-274
ah	-275
ien	-276
ik	-277
▁The	-278
iel	-279
▁um	-280
iv	-281
▁We	-282
▁ch	-283
art	-284
ahr	-285
og	-286
▁som	-287
oll	-288
▁or	-289
▁über	-290
▁kön	-291
▁des	-292
ight	-293
▁Das	-294
▁wer	-295
end	-296
▁Es	-297
▁there	-298
▁dem	-299
her	-300
▁my	-301
ese	-302
ze	-303
mer	-304
▁Sch	-305
qu	-306
▁pe	-307
▁de	-308
▁Wir	-309
ink	-310
ive	-311
▁Le	-312
."	-313
ine	-314
▁mein	-315
ople	-316
▁It	-317
▁ma	-318
ate	-319
▁con	-320
▁sa	-321
igen	-322
▁diese	-323
▁one	-324
och	-325
od	-326
▁people	-327
▁Er	-328
▁da	-329
ity	-330
▁like	-331
▁kn	-332
ute	-333
tw	-334
▁from	-335
esch	-336
ure	-337
▁tr	-338
ang	-339
▁ar	-340
ause	-341
ap	-342
▁sein	-343
▁also	-344
ass	-345
▁wenn	-346
00	-347
elt	-348
▁bec	-349
▁einen	-350
▁but	-351
▁us	-352
ook	-353
ast	-354
▁out	-355
▁our	-356
▁get	-357
▁know	-358
▁Be	-359
zen	-360
▁Die	-361
▁ih	-362
ne	-363
▁just	-364
ensch	-365
ieren	-366
▁thing	-367
▁Pro	-368
▁können	-369
ted	-370
ear	-371
▁Ar	-372
▁2	-373
▁werden	-374
▁Y	-375
▁pl	-376
▁them	-377
▁oder	-378
▁An	-379
ild	-380
iert	-381
oug	-382
▁these	-383
ungen	-384
ick	-385
▁But	-386
▁very	-387
▁vor	-388
▁if	-389
▁her	-390
▁up	-391
▁think	-392
▁ent	-393
hl	-394
per	-395
▁who	-396
orm	-397
▁mach	-398
ank	-399
one	-400
ug	-401
ound	-402
▁kann	-403
ige	-404
▁going	-405
our	-406
if	-407
▁aber	-408
▁Ver	-409
▁Al	-410
iz	-411
ain	-412
▁by	-413
ud	-414
▁auch	-415
▁einer	-416
ack	-417
▁Mensch	-418
▁act	-419
▁see	-420
▁gen	-421
scha	-422
▁einem	-423
▁Aber	-424
ät	-425
zt	-426
ibt	-427
▁when	-428
sten	-429
eren	-430
▁dar	-431
ect	-432
▁di	-433
▁nach	-434
▁your	-435
▁Un	-436
▁because	-437
ide	-438
ame	-439
▁had	-440
ert	-441
▁some	-442
olog	-443
age	-444
▁nur	-445
pl	-446
ial	-447
nt	-448
▁year	-449
▁en	-450
ans	-451
▁more	-452
▁hier	-453
änd	-454
pt	-455
ard	-456
ak	-457
▁sehr	-458
▁te	-459
ste	-460
▁wird	-461
▁etw	-462
▁will	-463
ob	-464
▁tim	-465
tern	-466
▁Re	-467
▁Ge	-468
ischen	-469
ble	-470
ru	-471
to	-472
▁which	-473
reat	-474
▁would	-475
▁♫	-476
▁ever	-477
▁Menschen	-478
itt	-479
ück	-480
urch	-481
äch	-482
ör	-483
▁look	-484
ple	-485
ise	-486
▁really	-487
ose	-488
ond	-489
▁were	-490
▁their	-491
▁am	-492
▁mich	-493
ous	-494
ually	-495
▁how	-496
▁–	-497
▁Wh	-498
are	-499
▁work	-500
keit	-501
ens	-502
▁gibt	-503
hing	-504
issen	-505
▁Te	-506
▁dann	-507
▁kein	-508
fe	-509
▁wur	-510
▁Jahr	-511
▁way	-512
ong	-513
chen	-514
▁here	-515
▁gro	-516
▁vie	-517
▁per	-518
▁gl	-519
he	-520
▁Ih	-521
du	-522
chn	-523
ue	-524
lle	-525
▁You	-526
beit	-527
▁has	-528
▁qu	-529
lie	-530
hal	-531
heit	-532
▁noch	-533
▁world	-534
▁ste	-535
wo	-536
ven	-537
▁then	-538
▁etwas	-539
ater	-540
▁time	-541
ther	-542
▁Sp	-543
ment	-544
ommen	-545
▁ihr	-546
ign	-547
ions	-548
▁This	-549
schaft	-550
▁inter	-551
▁fa	-552
ough	-553
ken	-554
ia	-555
ub	-556
ore	-557
▁mir	-558
blem	-559
▁habe	-560
▁sehen	-561
▁don	-562
▁into	-563
▁actually	-564
▁every	-565
▁Als	-566
än	-567
▁Ein	-568
▁say	-569
▁pr	-570
ip	-571
ite	-572
▁dieser	-573
▁Welt	-574
yst	-575
rie	-576
alk	-577
▁mus	-578
▁could	-579
auf	-580
▁mehr	-581
sel	-582
▁want	-583
pr	-584
▁bet	-585
▁zur	-586
▁durch	-587
▁things	-588
▁now	-589
▁gr	-590
▁fe	-591
▁sag	-592
▁where	-593
ische	-594
▁bei	-595
▁years	-596
ult	-597
▁jed	-598
▁ag	-599
▁Now	-600
ystem	-601
ner	-602
▁bra	-603
▁did	-604
▁other	-605
lichen	-606
ren	-607
etzt	-608
▁viel	-609
ring	-610
▁somet	-611
▁Wenn	-612
ace	-613
cht	-614
▁Leben	-615
▁They	-616
▁been	-617
form	-618
▁Fra	-619
liche	-620
ac	-621
ical	-622
ph	-623
▁any	-624
▁ro	-625
▁sc	-626
▁alle	-627
▁ges	-628
▁beg	-629
üs	-630
▁diff	-631
▁no	-632
▁make	-633
▁happ	-634
▁cl	-635
▁Zeit	-636
▁ob	-637
ome	-638
▁let	-639
klich	-640
fach	-641
ry	-642
ile	-643
▁geh	-644
▁gan	-645
me	-646
rei	-647
▁Ch	-648
▁said	-649
▁mö	-650
▁tra	-651
ost	-652
fl	-653
▁zum	-654
▁find	-655
▁comp	-656
▁wurde	-657
ungs	-658
▁need	-659
fen	-660
▁Ihnen	-661
irst	-662
▁right	-663
▁wür	-664
▁part	-665
ake	-666
wer	-667
mt	-668
zu	-669
ree	-670
ory	-671
▁over	-672
▁unser	-673
ßen	-674
ähr	-675
▁something	-676
ice	-677
chte	-678
▁bl	-679
▁He	-680
▁sel	-681
▁machen	-682
iver	-683
inge	-684
che	-685
ellen	-686
▁back	-687
assen	-688
gt	-689
▁wo	-690
fr	-691
illion	-692
chnolog	-693
▁wirklich	-694
erst	-695
▁unter	-696
▁kind	-697
ient	-698
▁got	-699
ount	-700
▁ihre	-701
able	-702
▁Gesch	-703
000	-704
als	-705
fü	-706
▁two	-707
▁tun	-708
▁much	-709
▁einfach	-710
▁immer	-711
ys	-712
▁Kind	-713
ange	-714
ger	-715
▁than	-716
▁meine	-717
▁3	-718
▁call	-719
ittle	-720
acht	-721
▁bu	-722
▁weit	-723
▁first	-724
sp	-725
own	-726
red	-727
bst	-728
▁those	-729
▁little	-730
▁weil	-731
ark	-732
▁bes	-733
aten	-734
ations	-735
▁Also	-736
ffen	-737
▁kon	-738
erson	-739
rit	-740
cent	-741
▁ph	-742
▁new	-743
▁lot	-744
nte	-745
▁Gr	-746
▁woll	-747
?"	-748
▁fü	-749
ats	-750
▁Or	-751
▁lo	-752
▁imp	-753
▁soll	-754
way	-755
ves	-756
iger	-757
▁hatte	-758
▁dieses	-759
▁bis	-760
eln	-761
▁That	-762
▁Ne	-763
ord	-764
▁ra	-765
▁kom	-766
ale	-767
▁res	-768
▁talk	-769
gan	-770
▁müs	-771
▁kle	-772
vel	-773
▁ac	-774
▁spe	-775
▁unsere	-776
▁Man	-777
ri	-778
▁Was	-779
ath	-780
▁dis	-781
ase	-782
ehmen	-783
ges	-784
▁po	-785
ody	-786
▁most	-787
hen	-788
▁dam	-789
leich	-790
hn	-791
ood	-792
uchen	-793
▁she	-794
▁only	-795
ving	-796
▁keine	-797
▁Leute	-798
aut	-799
ied	-800
är	-801
ated	-802
▁life	-803
wei	-804
glich	-805
▁wissen	-806
gend	-807
ition	-808
▁hin	-809
uen	-810
ance	-811
▁real	-812
▁Art	-813
▁his	-814
ktion	-815
▁ad	-816
erent	-817
▁vers	-818
mal	-819
ents	-820
▁diesem	-821
ely	-822
ram	-823
▁even	-824
▁müssen	-825
▁day	-826
▁gut	-827
▁19	-828
inn	-829
▁cont	-830
▁star	-831
▁Dinge	-832
▁hum	-833
▁thr	-834
xt	-835
ish	-836
bar	-837
▁sagen	-838
▁sagte	-839
▁viele	-840
▁waren	-841
▁take	-842
▁zw	-843
▁Ges	-844
▁different	-845
▁diesen	-846
▁ze	-847
ok	-848
▁ide	-849
iß	-850
igkeit	-851
▁lie	-852
ons	-853
gl	-854
▁Vor	-855
▁off	-856
ichte	-857
▁bin	-858
▁many	-859
▁dr	-860
▁good	-861
▁groß	-862
unden	-863
▁bef	-864
▁Jahren	-865
▁fl	-866
▁su	-867
▁Se	-868
▁pass	-869
▁down	-870
wn	-871
ict	-872
other	-873
▁There	-874
▁ind	-875
▁20	-876
▁does	-877
ont	-878
▁nat	-879
int	-880
▁around	-881
▁through	-882
▁put	-883
get	-884
▁eines	-885
ahl	-886
ammen	-887
▁jetzt	-888
▁hel	-889
▁andere	-890
▁zwei	-891
▁5	-892
ors	-893
act	-894
urn	-895
▁What	-896
▁gew	-897
▁bek	-898
▁wieder	-899
ution	-900
▁Aus	-901
off	-902
▁anderen	-903
iss	-904
ichtig	-905
▁pre	-906
▁show	-907
llen	-908
usammen	-909
▁10	-910
ool	-911
ty	-912
tel	-913
ahre	-914
ität	-915
cess	-916
lleicht	-917
▁verb	-918
▁em	-919
▁glau	-920
ience	-921
ible	-922
▁Auf	-923
▁sol	-924
▁use	-925
oc	-926
▁being	-927
ought	-928
▁alles	-929
▁tell	-930
▁würde	-931
ary	-932
▁Wie	-933
auen	-934
igh	-935
vol	-936
▁Dies	-937
ss	-938
▁du	-939
▁problem	-940
vor	-941
▁damit	-942
▁selbst	-943
▁En	-944
ious	-945
▁happen	-946
ual	-947
▁same	-948
gr	-949
oss	-950
▁bring	-951
old	-952
ekt	-953
isten	-954
▁comm	-955
ha	-956
igt	-957
▁try	-958
ähl	-959
▁Ind	-960
▁inc	-961
▁fact	-962
▁4	-963
ede	-964
▁gem	-965
ces	-966
▁best	-967
▁wen	-968
arn	-969
ars	-970
▁come	-971
▁Problem	-972
▁sm	-973
▁Der	-974
▁ins	-975
geb	-976
▁geht	-977
▁fun	-978
ian	-979
ful	-980
tra	-981
yp	-982
▁doing	-983
ject	-984
ower	-985
day	-986
▁wel	-987
ler	-988
▁stud	-989
ün	-990
amil	-991
▁Jahre	-992
formation	-993
▁may	-994
▁great	-995
fter	-996
ism	-997
att	-998
▁big	-999
ically	-1000
▁Pl	-1001
▁zurück	-1002
▁three	-1003
omen	-1004
ep	-1005
▁count	-1006
nis	-1007
▁lang	-1008
▁gesch	-1009
▁Mit	-1010
uss	-1011
▁bit	-1012
äl	-1013
▁denn	-1014
▁start	-1015
▁hal	-1016
▁nie	-1017
▁human	-1018
▁muss	-1019
ire	-1020
ade	-1021
▁system	-1022
▁end	-1023
▁versch	-1024
▁If	-1025
piel	-1026
▁sur	-1027
ction	-1028
tet	-1029
ved	-1030
ting	-1031
▁well	-1032
▁percent	-1033
▁produ	-1034
▁weiter	-1035
▁Um	-1036
ächlich	-1037
nten	-1038
▁sim	-1039
▁gu	-1040
äre	-1041
▁ger	-1042
▁schon	-1043
öß	-1044
▁dec	-1045
▁ir	-1046
ics	-1047
ucht	-1048
thing	-1049
▁klein	-1050
▁heraus	-1051
ds	-1052
ize	-1053
zent	-1054
▁pa	-1055
▁ask	-1056
tell	-1057
▁called	-1058
▁ben	-1059
▁exper	-1060
▁build	-1061
▁bas	-1062
von	-1063
▁hand	-1064
▁app	-1065
iden	-1066
ating	-1067
ock	-1068
▁möchte	-1069
stell	-1070
▁Well	-1071
▁gra	-1072
▁Bl	-1073
▁verst	-1074
▁Amer	-1075
self	-1076
▁child	-1077
▁again	-1078
▁pol	-1079
▁ihnen	-1080
▁Fl	-1081
alt	-1082
rä	-1083
üt	-1084
▁ganz	-1085
▁Afr	-1086
▁technolog	-1087
ull	-1088
▁made	-1089
teil	-1090
▁vielleicht	-1091
la	-1092
▁Ide	-1093
▁Arbeit	-1094
les	-1095
hren	-1096
▁Teil	-1097
pro	-1098
▁quest	-1099
io	-1100
▁Her	-1101
halten	-1102
gel	-1103
▁ele	-1104
ork	-1105
▁long	-1106
ivers	-1107
atsächlich	-1108
▁einz	-1109
ek	-1110
▁zusammen	-1111
▁Kinder	-1112
etz	-1113
ates	-1114
äh	-1115
bt	-1116
▁trans	-1117
its	-1118
▁rem	-1119
▁arbeit	-1120
▁Nun	-1121
▁import	-1122
▁should	-1123
▁learn	-1124
cial	-1125
▁Geh	-1126
▁Land	-1127
▁mak	-1128
az	-1129
fahr	-1130
▁davon	-1131
esen	-1132
▁own	-1133
eld	-1134
entlich	-1135
▁fra	-1136
bs	-1137
▁why	-1138
angen	-1139
▁rel	-1140
pf	-1141
▁sec	-1142
▁For	-1143
oment	-1144
sam	-1145
▁Gen	-1146
▁underst	-1147
ierte	-1148
sche	-1149
ational	-1150
uter	-1151
uten	-1152
ities	-1153
▁Beis	-1154
▁Hier	-1155
▁mean	-1156
aum	-1157
▁gleich	-1158
▁person	-1159
▁All	-1160
▁Tag	-1161
eine	-1162
▁heute	-1163
▁cour	-1164
▁Wissen	-1165
▁hatten	-1166
uß	-1167
▁car	-1168
▁entw	-1169
▁Grund	-1170
▁thought	-1171
▁Im	-1172
▁after	-1173
▁turn	-1174
▁idea	-1175
halb	-1176
▁genau	-1177
▁Geschichte	-1178
for	-1179
▁fin	-1180
weise	-1181
▁design	-1182
zie	-1183
rank	-1184
▁didn	-1185
▁Bild	-1186
erm	-1187
▁today	-1188
▁letz	-1189
▁rec	-1190
ielen	-1191
br	-1192
ope	-1193
ubl	-1194
▁change	-1195
onom	-1196
▁brain	-1197
,000	-1198
▁feel	-1199
▁Fre	-1200
▁play	-1201
ail	-1202
inden	-1203
▁str	-1204
▁belie	-1205
▁important	-1206
erg	-1207
▁creat	-1208
ichten	-1209
ular	-1210
chten	-1211
body	-1212
ica	-1213
anden	-1214
▁Nach	-1215
▁Thank	-1216
hne	-1217
▁ihn	-1218
rechen	-1219
▁jem	-1220
▁its	-1221
▁last	-1222
anet	-1223
▁dort	-1224
omp	-1225
▁started	-1226
▁him	-1227
▁drei	-1228
kl	-1229
▁einige	-1230
▁könnte	-1231
ix	-1232
mlich	-1233
▁Diese	-1234
▁200	-1235
▁exam	-1236
over	-1237
atz	-1238
vent	-1239
▁paar	-1240
ändern	-1241
▁Unter	-1242
▁went	-1243
orn	-1244
oren	-1245
▁wollen	-1246
gar	-1247
ode	-1248
▁before	-1249
▁course	-1250
olle	-1251
▁Ste	-1252
erv	-1253
▁Zu	-1254
imm	-1255
▁nun	-1256
▁darüber	-1257
ings	-1258
▁understand	-1259
enden	-1260
▁werde	-1261
äd	-1262
atur	-1263
▁gehen	-1264
gram	-1265
▁meiner	-1266
▁wurden	-1267
▁give	-1268
reich	-1269
anz	-1270
▁still	-1271
irn	-1272
ache	-1273
▁sond	-1274
▁ans	-1275
▁able	-1276
▁tatsächlich	-1277
bei	-1278
asser	-1279
▁might	-1280
▁never	-1281
▁another	-1282
▁help	-1283
ility	-1284
ieden	-1285
▁ke	-1286
▁eff	-1287
▁better	-1288
..	-1289
▁Me	-1290
▁Beispiel	-1291
▁kl	-1292
▁story	-1293
utzen	-1294
▁verw	-1295
▁Da	-1296
▁erst	-1297
nde	-1298
▁schw	-1299
ogra	-1300
▁point	-1301
▁irgend	-1302
zähl	-1303
für	-1304
▁Ab	-1305
ennen	-1306
utz	-1307
▁Gl	-1308
▁sort	-1309
▁tak	-1310
ists	-1311
ürlich	-1312
schein	-1313
▁Geb	-1314
▁zie	-1315
▁sondern	-1316
▁weiß	-1317
ährend	-1318
▁cons	-1319
pen	-1320
▁bess	-1321
kay	-1322
amm	-1323
▁med	-1324
umber	-1325
▁power	-1326
eite	-1327
▁wahr	-1328
▁seine	-1329
uff	-1330
▁kid	-1331
▁br	-1332
ov	-1333
▁Ü	-1334
▁besch	-1335
änder	-1336
▁Ihre	-1337
▁eigen	-1338
▁found	-1339
▁bede	-1340
▁gab	-1341
▁bo	-1342
▁mal	-1343
oth	-1344
▁unserer	-1345
ital	-1346
ott	-1347
▁ago	-1348
▁Reg	-1349
ins	-1350
▁exp	-1351
ander	-1352
ugen	-1353
ward	-1354
▁next	-1355
▁Mus	-1356
ather	-1357
▁geb	-1358
aw	-1359
▁kam	-1360
iven	-1361
▁Kl	-1362
land	-1363
,"	-1364
▁gel	-1365
▁toget	-1366
▁together	-1367
fol	-1368
▁came	-1369
▁school	-1370
▁mon	-1371
▁ec	-1372
▁water	-1373
volution	-1374
▁Aut	-1375
▁wäre	-1376
▁6	-1377
arch	-1378
ues	-1379
ave	-1380
ts	-1381
▁denke	-1382
▁größ	-1383
▁Kon	-1384
allen	-1385
ED	-1386
▁Ph	-1387
▁Des	-1388
schen	-1389
▁place	-1390
▁Intern	-1391
rat	-1392
▁vom	-1393
▁leben	-1394
ingen	-1395
▁dazu	-1396
▁comple	-1397
ym	-1398
▁New	-1399
▁sl	-1400
ited	-1401
ata	-1402
▁imag	-1403
gef	-1404
▁pat	-1405
...	-1406
cted	-1407
▁few	-1408
achen	-1409
cken	-1410
ween	-1411
▁hät	-1412
▁neue	-1413
▁denken	-1414
alth	-1415
▁Lebens	-1416
▁Million	-1417
▁Chin	-1418
▁macht	-1419
▁kommen	-1420
▁used	-1421
öglich	-1422
velop	-1423
aufen	-1424
▁verl	-1425
▁number	-1426
▁Hand	-1427
▁finden	-1428
▁high	-1429
▁commun	-1430
▁technology	-1431
read	-1432
anted	-1433
▁each	-1434
▁denen	-1435
▁entwick	-1436
▁Mal	-1437
▁gemacht	-1438
▁gef	-1439
▁einmal	-1440
▁sogar	-1441
▁wichtig	-1442
▁min	-1443
arbeit	-1444
zeit	-1445
bl	-1446
▁gegen	-1447
▁inst	-1448
▁gerade	-1449
▁Technolog	-1450
▁Wer	-1451
iness	-1452
cause	-1453
ced	-1454
▁glaube	-1455
ized	-1456
▁When	-1457
▁between	-1458
▁question	-1459
els	-1460
▁Br	-1461
▁15	-1462
▁interess	-1463
▁zwischen	-1464
▁glob	-1465
▁kommt	-1466
eter	-1467
▁geben	-1468
öff	-1469
elle	-1470
▁looking	-1471
▁set	-1472
▁done	-1473
kommen	-1474
▁small	-1475
ative	-1476
geben	-1477
esting	-1478
ika	-1479
▁50	-1480
▁develop	-1481
ways	-1482
itu	-1483
▁example	-1484
▁funktion	-1485
▁organ	-1486
▁Ent	-1487
▁Frauen	-1488
▁30	-1489
ule	-1490
agen	-1491
ific	-1492
mit	-1493
▁100	-1494
ium	-1495
▁expl	-1496
▁Because	-1497
▁How	-1498
ierung	-1499
▁Ihr	-1500
ember	-1501
▁art	-1502
uge	-1503
affen	-1504
▁Med	-1505
▁too	-1506
▁bere	-1507
▁schn	-1508
▁Frage	-1509
cy	-1510
atch	-1511
▁TED	-1512
▁disc	-1513
▁par	-1514
▁four	-1515
▁näch	-1516
▁Wasser	-1517
▁Internet	-1518
arm	-1519
▁cre	-1520
aterial	-1521
▁Gehirn	-1522
▁ohne	-1523
▁partic	-1524
ört	-1525
▁old	-1526
▁vis	-1527
▁el	-1528
ps	-1529
▁form	-1530
▁run	-1531
▁zeigen	-1532
▁dafür	-1533
ines	-1534
unkt	-1535
▁love	-1536
uer	-1537
▁letzten	-1538
▁Über	-1539
atter	-1540
ationen	-1541
gew	-1542
▁nichts	-1543
ably	-1544
▁doesn	-1545
▁light	-1546
▁De	-1547
▁würden	-1548
▁9	-1549
▁data	-1550
ören	-1551
▁Is	-1552
▁sieht	-1553
▁passiert	-1554
▁8	-1555
▁Ex	-1556
▁met	-1557
▁women	-1558
dem	-1559
▁verschieden	-1560
▁ihren	-1561
▁ersten	-1562
▁bi	-1563
tz	-1564
weg	-1565
▁Prozent	-1566
stellen	-1567
▁wanted	-1568
▁cent	-1569
▁cell	-1570
▁whole	-1571
▁jeder	-1572
▁konnte	-1573
▁grow	-1574
▁live	-1575
immt	-1576
▁second	-1577
pe	-1578
▁7	-1579
▁sk	-1580
ement	-1581
ikan	-1582
tschaft	-1583
▁erzähl	-1584
▁gener	-1585
alen	-1586
▁Stud	-1587
gie	-1588
▁inv	-1589
▁Univers	-1590
oy	-1591
ös	-1592
aub	-1593
gest	-1594
ures	-1595
▁dra	-1596
▁famil	-1597
▁während	-1598
ält	-1599
anke	-1600
ilm	-1601
▁Pr	-1602
▁daran	-1603
oney	-1604
▁Schw	-1605
▁million	-1606
▁lar	-1607
cept	-1608
▁care	-1609
▁verstehen	-1610
achte	-1611
▁stand	-1612
yn	-1613
here	-1614
▁poss	-1615
ross	-1616
led	-1617
▁eng	-1618
▁trying	-1619
▁Fr	-1620
▁Eine	-1621
▁tre	-1622
▁Millionen	-1623
▁wr	-1624
▁At	-1625
fer	-1626
ften	-1627
under	-1628
▁working	-1629
ogen	-1630
▁mag	-1631
selves	-1632
rupp	-1633
unde	-1634
▁always	-1635
▁begin	-1636
▁War	-1637
fin	-1638
▁reas	-1639
▁warum	-1640
▁lassen	-1641
▁ander	-1642
▁children	-1643
▁chang	-1644
▁sub	-1645
▁erste	-1646
▁sen	-1647
▁reg	-1648
▁etwa	-1649
▁read	-1650
ideo	-1651
▁Comp	-1652
▁book	-1653
▁besser	-1654
▁beh	-1655
▁Idee	-1656
▁dire	-1657
iele	-1658
▁sollte	-1659
hrt	-1660
cher	-1661
▁natürlich	-1662
vers	-1663
▁away	-1664
▁mind	-1665
net	-1666
los	-1667
ives	-1668
▁Daten	-1669
ster	-1670
▁bus	-1671
▁believe	-1672
enten	-1673
▁polit	-1674
ma	-1675
▁As	-1676
▁Geld	-1677
▁prob	-1678
▁norm	-1679
alls	-1680
jekt	-1681
zeug	-1682
▁econom	-1683
▁fast	-1684
ness	-1685
▁less	-1686
▁phys	-1687
▁Person	-1688
fühl	-1689
agt	-1690
essen	-1691
▁sollten	-1692
ider	-1693
▁anim	-1694
ollar	-1695
ands	-1696
tre	-1697
▁erw	-1698
▁resp	-1699
äng	-1700
▁meinen	-1701
▁mensch	-1702
unk	-1703
▁cap	-1704
emein	-1705
▁acc	-1706
▁pict	-1707
ural	-1708
▁dre	-1709
ischer	-1710
amp	-1711
▁ja	-1712
.000	-1713
▁Mon	-1714
▁supp	-1715
schied	-1716
▁ganze	-1717
▁country	-1718
▁Tr	-1719
illi	-1720
ußer	-1721
amer	-1722
▁My	-1723
▁wollte	-1724
▁könnten	-1725
▁meinem	-1726
▁Raum	-1727
▁schnell	-1728
sy	-1729
▁abs	-1730
ivid	-1731
▁Weg	-1732
▁ziemlich	-1733
err	-1734
raft	-1735
▁große	-1736
▁meisten	-1737
▁using	-1738
▁aut	-1739
▁cor	-1740
arth	-1741
row	-1742
▁bekommen	-1743
isen	-1744
▁sprechen	-1745
akt	-1746
▁means	-1747
asch	-1748
ries	-1749
ernen	-1750
▁sagt	-1751
▁five	-1752
▁System	-1753
▁maybe	-1754
▁jemand	-1755
▁kids	-1756
licher	-1757
utet	-1758
▁fre	-1759
str	-1760
hip	-1761
dern	-1762
▁information	-1763
ruck	-1764
▁eig	-1765
▁dabei	-1766
▁took	-1767
▁ging	-1768
▁health	-1769
▁hard	-1770
▁thinking	-1771
öglichkeit	-1772
ane	-1773
uft	-1774
▁ihrer	-1775
▁'	-1776
▁frien	-1777
ären	-1778
▁money	-1779
▁cou	-1780
lung	-1781
ilt	-1782
utter	-1783
▁mark	-1784
▁space	-1785
press	-1786
▁arbeiten	-1787
wir	-1788
▁Mar	-1789
ünd	-1790
▁mod	-1791
▁doll	-1792
▁One	-1793
▁Min	-1794
▁sing	-1795
▁darauf	-1796
▁nehmen	-1797
▁everything	-1798
ric	-1799
ierten	-1800
reit	-1801
▁project	-1802
▁such	-1803
onder	-1804
▁Verb	-1805
▁teach	-1806
ets	-1807
▁create	-1808
▁sicher	-1809
▁Dank	-1810
amen	-1811
legen	-1812
▁home	-1813
ograph	-1814
▁spec	-1815
gesch	-1816
▁Men	-1817
ald	-1818
▁process	-1819
aff	-1820
ett	-1821
urs	-1822
ters	-1823
▁Wissenschaft	-1824
unft	-1825
▁food	-1826
▁open	-1827
▁under	-1828
▁Ger	-1829
scheinlich	-1830
▁nam	-1831
▁Ende	-1832
▁Mann	-1833
ime	-1834
▁US	-1835
örper	-1836
▁left	-1837
fte	-1838
▁become	-1839
annt	-1840
lear	-1841
▁energ	-1842
▁These	-1843
▁quite	-1844
ew	-1845
vir	-1846
imes	-1847
ird	-1848
▁att	-1849
urz	-1850
▁Ener	-1851
▁enough	-1852
gh	-1853
▁Schl	-1854
vern	-1855
reiben	-1856
adt	-1857
▁Am	-1858
ruct	-1859
▁Inter	-1860
▁publ	-1861
▁interesting	-1862
▁walk	-1863
▁doch	-1864
▁Kom	-1865
▁weniger	-1866
▁compan	-1867
▁moment	-1868
▁kleinen	-1869
▁fut	-1870
▁Dann	-1871
ci	-1872
ktur	-1873
up	-1874
nov	-1875
▁sense	-1876
ilen	-1877
ories	-1878
▁head	-1879
▁hist	-1880
äter	-1881
▁comes	-1882
▁half	-1883
▁bedeutet	-1884
▁Vers	-1885
▁...	-1886
▁getting	-1887
▁coll	-1888
reen	-1889
▁ass	-1890
icher	-1891
ringen	-1892
▁sah	-1893
▁vier	-1894
▁cr	-1895
sych	-1896
▁Sache	-1897
▁Denn	-1898
llt	-1899
uck	-1900
▁Dollar	-1901
ständ	-1902
▁Entw	-1903
▁Technologie	-1904
oot	-1905
kunft	-1906
▁unseren	-1907
▁Information	-1908
▁Wor	-1909
▁times	-1910
abor	-1911
▁govern	-1912
".	-1913
▁Famil	-1914
▁probably	-1915
ga	-1916
ließ	-1917
▁typ	-1918
▁Mein	-1919
aupt	-1920
usst	-1921
▁Okay	-1922
▁prof	-1923
▁happened	-1924
▁future	-1925
▁welche	-1926
zahl	-1927
▁sign	-1928
cer	-1929
▁int	-1930
▁stuff	-1931
rop	-1932
▁stop	-1933
▁energy	-1934
cke	-1935
duc	-1936
▁Pol	-1937
▁nah	-1938
äs	-1939
▁bewe	-1940
ole	-1941
iere	-1942
▁York	-1943
ouse	-1944
alten	-1945
nah	-1946
port	-1947
ertain	-1948
ennt	-1949
▁Eur	-1950
▁bringen	-1951
▁making	-1952
▁talking	-1953
▁Ha	-1954
ude	-1955
ax	-1956
iet	-1957
▁Kre	-1958
▁fas	-1959
ican	-1960
iter	-1961
▁dachte	-1962
ulation	-1963
▁heiß	-1964
▁ser	-1965
ron	-1966
▁Wo	-1967
ments	-1968
orgen	-1969
▁eigentlich	-1970
▁ihm	-1971
▁building	-1972
▁pie	-1973
▁pop	-1974
gs	-1975
esten	-1976
▁grou	-1977
▁gesehen	-1978
par	-1979
▁room	-1980
▁contro	-1981
▁Möglichkeit	-1982
äus	-1983
line	-1984
äft	-1985
▁She	-1986
▁China	-1987
▁month	-1988
▁Krank	-1989
aces	-1990
▁beste	-1991
hlen	-1992
ustr	-1993
▁möglich	-1994
▁kleine	-1995
▁co	-1996
▁planet	-1997
ister	-1998
▁social	-1999
▁dist	-2000
▁conne	-2001
▁global	-2002
tty	-2003
schl	-2004
ever	-2005
▁Here	-2006
▁far	-2007
▁seit	-2008
man	-2009
rad	-2010
▁18	-2011
ices	-2012
▁add	-2013
▁brauchen	-2014
▁elect	-2015
▁else	-2016
▁told	-2017
ware	-2018
▁beaut	-2019
▁Seite	-2020
▁Energie	-2021
▁cur	-2022
viron	-2023
▁Ob	-2024
fort	-2025
▁Gro	-2026
eder	-2027
esent	-2028
▁ungl	-2029
▁wenig	-2030
ng	-2031
▁Gew	-2032
▁pra	-2033
iff	-2034
▁without	-2035
▁Stra	-2036
▁dollars	-2037
undert	-2038
▁business	-2039
▁body	-2040
tem	-2041
▁soz	-2042
▁top	-2043
▁schl	-2044
▁coming	-2045
iment	-2046
achsen	-2047
▁großen	-2048
▁Chr	-2049
ately	-2050
▁jeden	-2051
▁gar	-2052
▁week	-2053
ged	-2054
▁El	-2055
▁voll	-2056
▁keep	-2057
▁wonder	-2058
▁anything	-2059
ior	-2060
iges	-2061
▁pos	-2062
▁OK	-2063
▁job	-2064
▁Weise	-2065
▁reason	-2066
▁Africa	-2067
ying	-2068
▁ber	-2069
eten	-2070
▁pretty	-2071
▁Bü	-2072
▁side	-2073
▁12	-2074
▁fol	-2075
ional	-2076
etzen	-2077
▁Design	-2078
▁seem	-2079
▁allow	-2080
gle	-2081
▁40	-2082
▁bad	-2083
▁opp	-2084
richt	-2085
ipp	-2086
▁Sh	-2087
ief	-2088
▁ganzen	-2089
▁environ	-2090
▁Män	-2091
▁Frau	-2092
ether	-2093
▁sound	-2094
▁countries	-2095
quen	-2096
ret	-2097
▁Menge	-2098
▁Computer	-2099
opf	-2100
▁Str	-2101
▁Engl	-2102
▁Spiel	-2103
▁lives	-2104
",	-2105
▁Kar	-2106
aun	-2107
▁keinen	-2108
▁ret	-2109
aps	-2110
ismus	-2111
▁across	-2112
ches	-2113
▁Ele	-2114
▁says	-2115
irl	-2116
▁Den	-2117
▁versuchen	-2118
itive	-2119
ument	-2120
▁makes	-2121
schaften	-2122
▁auss	-2123
ionen	-2124
▁No	-2125
emat	-2126
▁bre	-2127
▁außer	-2128
ernt	-2129
halt	-2130
▁Buch	-2131
▁simple	-2132
isk	-2133
▁Let	-2134
▁hoch	-2135
iving	-2136
▁Woch	-2137
▁gern	-2138
▁goes	-2139
nf	-2140
ift	-2141
▁air	-2142
▁gesagt	-2143
▁matter	-2144
▁absol	-2145
▁saw	-2146
▁schle	-2147
esearch	-2148
ince	-2149
▁ear	-2150
tellt	-2151
▁hope	-2152
▁Fall	-2153
▁sit	-2154
Ich	-2155
uring	-2156
▁Zukunft	-2157
vie	-2158
dent	-2159
erence	-2160
▁niem	-2161
gal	-2162
▁hätte	-2163
▁science	-2164
geh	-2165
ende	-2166
▁men	-2167
▁val	-2168
▁ey	-2169
utes	-2170
▁glauben	-2171
▁particular	-2172
mun	-2173
▁Grupp	-2174
▁ä	-2175
where	-2176
▁phot	-2177
▁program	-2178
▁Pat	-2179
▁fig	-2180
▁cult	-2181
▁rest	-2182
▁seen	-2183
▁soc	-2184
eth	-2185
▁eas	-2186
rieben	-2187
▁später	-2188
▁lea	-2189
▁educ	-2190
▁gest	-2191
▁experience	-2192
ality	-2193
▁happens	-2194
ders	-2195
▁char	-2196
work	-2197
ator	-2198
gehen	-2199
leben	-2200
▁Stadt	-2201
▁col	-2202
▁living	-2203
▁vielen	-2204
ape	-2205
▁asked	-2206
▁unglaub	-2207
app	-2208
let	-2209
inter	-2210
▁Augen	-2211
▁later	-2212
▁Ort	-2213
ization	-2214
▁picture	-2215
zug	-2216
▁Entwick	-2217
oh	-2218
▁On	-2219
kte	-2220
athemat	-2221
▁je	-2222
most	-2223
▁hour	-2224
▁Licht	-2225
▁having	-2226
▁scient	-2227
▁Lie	-2228
▁move	-2229
▁Vielen	-2230
orth	-2231
▁six	-2232
achten	-2233
▁Antw	-2234
▁Natur	-2235
▁stellen	-2236
▁lernen	-2237
einander	-2238
racht	-2239
ähigkeit	-2240
öl	-2241
▁mil	-2242
▁answer	-2243
▁eigenen	-2244
▁konnten	-2245
ants	-2246
▁Moment	-2247
üh	-2248
▁beim	-2249
▁irgendw	-2250
▁indem	-2251
▁Spra	-2252
▁ways	-2253
illiar	-2254
ternehmen	-2255
▁computer	-2256
▁Ged	-2257
▁complete	-2258
nung	-2259
NA	-2260
ots	-2261
ume	-2262
▁Groß	-2263
ker	-2264
▁vir	-2265
onnen	-2266
▁problems	-2267
iety	-2268
▁exist	-2269
▁heißt	-2270
ckt	-2271
rib	-2272
erein	-2273
▁Körper	-2274
▁individ	-2275
▁25	-2276
▁fünf	-2277
▁land	-2278
▁Danke	-2279
▁funktioniert	-2280
ily	-2281
▁bro	-2282
▁Dar	-2283
▁oft	-2284
mittel	-2285
▁music	-2286
▁effect	-2287
▁family	-2288
▁Ber	-2289
undheit	-2290
▁days	-2291
▁environment	-2292
oman	-2293
▁langu	-2294
▁thous	-2295
▁Mutter	-2296
▁Jetzt	-2297
▁Gemein	-2298
▁single	-2299
▁rob	-2300
▁case	-2301
▁jedes	-2302
▁schaffen	-2303
zeich	-2304
▁basically	-2305
folg	-2306
unst	-2307
▁Produ	-2308
av	-2309
ändert	-2310
ared	-2311
▁Earth	-2312
▁unt	-2313
▁pers	-2314
▁Musik	-2315
▁verk	-2316
ike	-2317
▁Haus	-2318
▁Milliar	-2319
air	-2320
▁ev	-2321
outh	-2322
▁remember	-2323
▁research	-2324
▁equ	-2325
äm	-2326
▁Sel	-2327
ident	-2328
gn	-2329
▁Erde	-2330
▁level	-2331
▁nä	-2332
ash	-2333
▁fest	-2334
gefähr	-2335
▁young	-2336
▁Planet	-2337
ision	-2338
ote	-2339
▁ble	-2340
asse	-2341
▁fal	-2342
chs	-2343
▁saying	-2344
▁inside	-2345
ided	-2346
ellschaft	-2347
▁dig	-2348
▁Probleme	-2349
zuf	-2350
▁loc	-2351
▁öff	-2352
rück	-2353
▁bew	-2354
▁hear	-2355
ilder	-2356
▁Kont	-2357
▁amaz	-2358
▁gute	-2359
ruktur	-2360
reichen	-2361
▁komple	-2362
▁seiner	-2363
▁Do	-2364
▁certain	-2365
itz	-2366
▁Wahr	-2367
ready	-2368
ament	-2369
▁guy	-2370
▁pain	-2371
isches	-2372
▁prote	-2373
ury	-2374
▁Organ	-2375
▁Warum	-2376
ife	-2377
▁almost	-2378
▁nutzen	-2379
▁possible	-2380
▁Ze	-2381
ktiv	-2382
ritt	-2383
▁Form	-2384
▁once	-2385
uche	-2386
▁Rob	-2387
▁began	-2388
▁watch	-2389
▁besond	-2390
▁yet	-2391
iverse	-2392
stellung	-2393
▁tot	-2394
▁stre	-2395
▁while	-2396
▁normal	-2397
▁eing	-2398
▁ideas	-2399
▁sure	-2400
▁wahrscheinlich	-2401
▁extre	-2402
stoff	-2403
dle	-2404
▁line	-2405
fahren	-2406
▁discover	-2407
▁suc	-2408
▁allen	-2409
▁betra	-2410
aden	-2411
▁self	-2412
▁genug	-2413
auer	-2414
anc	-2415
▁anders	-2416
▁helfen	-2417
▁billion	-2418
ield	-2419
▁Ang	-2420
▁both	-2421
▁wrong	-2422
iti	-2423
lt	-2424
▁contin	-2425
▁aller	-2426
▁net	-2427
▁erzählen	-2428
▁herum	-2429
osten	-2430
▁whether	-2431
oden	-2432
▁biolog	-2433
▁exc	-2434
▁product	-2435
▁zeigt	-2436
riff	-2437
▁incred	-2438
▁within	-2439
ush	-2440
ünst	-2441
▁USA	-2442
▁looks	-2443
▁schön	-2444
▁already	-2445
so	-2446
▁Jo	-2447
olen	-2448
▁bed	-2449
▁unserem	-2450
▁Par	-2451
▁fund	-2452
▁looked	-2453
fra	-2454
▁true	-2455
▁begann	-2456
öt	-2457
gte	-2458
iful	-2459
▁neuen	-2460
▁beha	-2461
▁exact	-2462
glichen	-2463
▁public	-2464
▁Uns	-2465
stand	-2466
▁Gesundheit	-2467
aby	-2468
▁speak	-2469
side	-2470
▁city	-2471
ages	-2472
ption	-2473
nehmen	-2474
ogn	-2475
▁dise	-2476
▁nächsten	-2477
▁nothing	-2478
▁Ever	-2479
▁kennen	-2480
▁someone	-2481
chmal	-2482
denken	-2483
▁Not	-2484
▁treat	-2485
zess	-2486
▁control	-2487
wend	-2488
▁lange	-2489
▁history	-2490
▁ungefähr	-2491
rum	-2492
▁dev	-2493
▁heard	-2494
▁amazing	-2495
ene	-2496
lichkeit	-2497
oice	-2498
welt	-2499
▁DNA	-2500
▁term	-2501
▁che	-2502
▁universe	-2503
▁Gegen	-2504
▁Schul	-2505
▁richtig	-2506
arten	-2507
▁recht	-2508
▁myself	-2509
▁Ja	-2510
▁erh	-2511
▁cost	-2512
scheid	-2513
osed	-2514
▁Bed	-2515
▁Why	-2516
gleich	-2517
▁bisschen	-2518
▁heart	-2519
▁kill	-2520
ivity	-2521
▁ü	-2522
ases	-2523
▁Bere	-2524
oral	-2525
▁Tod	-2526
heiten	-2527
▁CA	-2528
▁verd	-2529
ention	-2530
▁invest	-2531
▁Lehr	-2532
▁Kunst	-2533
▁erinn	-2534
ösen	-2535
▁Ma	-2536
ollow	-2537
▁girl	-2538
▁often	-2539
▁Du	-2540
▁train	-2541
ituation	-2542
imate	-2543
stead	-2544
▁Sta	-2545
liches	-2546
undred	-2547
▁Selbst	-2548
▁patient	-2549
inz	-2550
▁Tra	-2551
gangen	-2552
▁Ideen	-2553
iddle	-2554
▁bevor	-2555
▁extra	-2556
eah	-2557
▁erf	-2558
zus	-2559
▁writ	-2560
▁works	-2561
▁imagine	-2562
▁ur	-2563
▁wa	-2564
unter	-2565
▁cond	-2566
vious	-2567
▁mass	-2568
▁words	-2569
▁couple	-2570
▁figure	-2571
▁Fe	-2572
▁weg	-2573
▁jede	-2574
▁Fot	-2575
▁class	-2576
▁iss	-2577
▁psych	-2578
▁challen	-2579
▁bauen	-2580
▁cells	-2581
eiten	-2582
▁order	-2583
less	-2584
▁United	-2585
fä	-2586
▁mar	-2587
▁gemein	-2588
▁wus	-2589
▁beautiful	-2590
innen	-2591
uchte	-2592
▁community	-2593
▁liegt	-2594
▁piece	-2595
zieh	-2596
▁alt	-2597
ination	-2598
iker	-2599
ones	-2600
▁trad	-2601
ße	-2602
ians	-2603
thers	-2604
▁insp	-2605
▁Fähigkeit	-2606
▁To	-2607
▁aff	-2608
▁cancer	-2609
▁Informationen	-2610
▁full	-2611
▁kurz	-2612
kennen	-2613
▁Projekt	-2614
▁link	-2615
forder	-2616
▁built	-2617
▁result	-2618
▁Leuten	-2619
▁hundred	-2620
hin	-2621
aper	-2622
▁months	-2623
zust	-2624
imens	-2625
▁seinen	-2626
▁age	-2627
▁language	-2628
fect	-2629
▁night	-2630
fle	-2631
spr	-2632
▁Em	-2633
▁front	-2634
Wh	-2635
▁intell	-2636
▁Nicht	-2637
▁Punkt	-2638
▁Patient	-2639
ieht	-2640
▁sei	-2641
iting	-2642
▁must	-2643
▁Schule	-2644
▁gehört	-2645
The	-2646
inen	-2647
utzt	-2648
▁mot	-2649
▁dich	-2650
▁defin	-2651
▁inner	-2652
▁Erfahr	-2653
▁pay	-2654
▁klar	-2655
▁follow	-2656
▁everybody	-2657
llig	-2658
▁material	-2659
▁Planeten	-2660
▁Arten	-2661
äche	-2662
▁rad	-2663
ultur	-2664
▁face	-2665
▁wicht	-2666
▁species	-2667
ums	-2668
▁entire	-2669
▁government	-2670
aur	-2671
▁video	-2672
▁überall	-2673
mö	-2674
▁group	-2675
▁incre	-2676
▁Forsch	-2677
cc	-2678
▁hö	-2679
▁erl	-2680
▁verändern	-2681
ging	-2682
▁schwer	-2683
▁sw	-2684
▁Für	-2685
▁Zahl	-2686
▁60	-2687
asst	-2688
▁Exper	-2689
▁los	-2690
▁sagten	-2691
ton	-2692
ress	-2693
▁darum	-2694
▁Mäd	-2695
anzen	-2696
▁nennen	-2697
▁intern	-2698
▁friends	-2699
iten	-2700
▁Kopf	-2701
▁market	-2702
omet	-2703
anken	-2704
ortun	-2705
▁erkl	-2706
▁neur	-2707
ired	-2708
▁Milliarden	-2709
por	-2710
▁wasn	-2711
▁until	-2712
▁Antwort	-2713
irc	-2714
▁stehen	-2715
ivil	-2716
▁Gra	-2717
▁anf	-2718
▁Gebä	-2719
▁word	-2720
satz	-2721
umen	-2722
▁places	-2723
ested	-2724
lagen	-2725
▁Krie	-2726
▁Afrika	-2727
▁euch	-2728
inner	-2729
ential	-2730
▁completely	-2731
bo	-2732
ußen	-2733
▁isn	-2734
▁education	-2735
▁ident	-2736
▁anderes	-2737
nisse	-2738
▁appro	-2739
▁model	-2740
▁reden	-2741
cl	-2742
nitt	-2743
▁Dieses	-2744
▁Fragen	-2745
▁decided	-2746
icro	-2747
werk	-2748
ienen	-2749
▁eben	-2750
antw	-2751
▁India	-2752
▁ihrem	-2753
▁innov	-2754
▁quick	-2755
▁Unternehmen	-2756
▁spend	-2757
▁schwier	-2758
▁ant	-2759
▁emot	-2760
mut	-2761
▁sex	-2762
▁nature	-2763
▁Geschichten	-2764
ateg	-2765
▁dest	-2766
▁Glück	-2767
▁large	-2768
▁dep	-2769
▁object	-2770
▁Ur	-2771
▁Männer	-2772
▁musste	-2773
omes	-2774
reif	-2775
stit	-2776
ering	-2777
▁Film	-2778
osph	-2779
▁großart	-2780
ctor	-2781
▁Dem	-2782
▁Vie	-2783
▁terr	-2784
▁exactly	-2785
▁Meine	-2786
▁hinter	-2787
plic	-2788
▁chem	-2789
▁Bi	-2790
chan	-2791
▁Bet	-2792
▁Wirtschaft	-2793
voll	-2794
▁199	-2795
immen	-2796
▁behav	-2797
▁stories	-2798
▁entwickelt	-2799
ibly	-2800
wohl	-2801
▁taking	-2802
▁happening	-2803
▁ho	-2804
▁America	-2805
▁son	-2806
▁miss	-2807
liegen	-2808
▁itself	-2809
▁bereits	-2810
acter	-2811
▁Jahrh	-2812
▁tool	-2813
▁view	-2814
▁Can	-2815
▁Bes	-2816
▁engine	-2817
▁States	-2818
▁though	-2819
▁wunder	-2820
▁Goo	-2821
▁oben	-2822
kten	-2823
▁kinds	-2824
▁became	-2825
zept	-2826
▁Gott	-2827
▁animals	-2828
ommt	-2829
▁share	-2830
▁Zusammen	-2831
ielt	-2832
▁mess	-2833
ilfe	-2834
▁prov	-2835
▁Every	-2836
▁entde	-2837
rieb	-2838
▁Mode	-2839
ftware	-2840
▁steht	-2841
▁fragen	-2842
▁students	-2843
▁spielen	-2844
▁red	-2845
▁Minuten	-2846
▁benutzen	-2847
sh	-2848
▁Pe	-2849
face	-2850
▁deal	-2851
▁Gener	-2852
ability	-2853
▁halten	-2854
▁Mädchen	-2855
▁80	-2856
▁Di	-2857
▁Flug	-2858
▁repr	-2859
ructure	-2860
▁seinem	-2861
▁ourselves	-2862
ides	-2863
stra	-2864
andel	-2865
▁arch	-2866
▁gets	-2867
▁sens	-2868
▁techn	-2869
▁Indien	-2870
▁success	-2871
▁erreichen	-2872
igten	-2873
▁cool	-2874
▁stat	-2875
▁since	-2876
bed	-2877
▁adv	-2878
uster	-2879
▁namens	-2880
▁learned	-2881
▁Netz	-2882
▁Lös	-2883
▁dir	-2884
▁law	-2885
▁gerne	-2886
▁Gefühl	-2887
▁society	-2888
▁besonders	-2889
▁verschiedene	-2890
▁schein	-2891
gung	-2892
▁knew	-2893
▁wind	-2894
▁woman	-2895
▁themselves	-2896
izin	-2897
▁Spe	-2898
▁complex	-2899
▁somebody	-2900
▁Gesellschaft	-2901
▁minutes	-2902
▁God	-2903
▁won	-2904
▁game	-2905
▁hören	-2906
▁machte	-2907
met	-2908
icken	-2909
ütz	-2910
▁mem	-2911
▁circ	-2912
▁huge	-2913
▁study	-2914
▁erkennen	-2915
▁det	-2916
▁ones	-2917
▁hätten	-2918
▁Kn	-2919
▁av	-2920
▁darin	-2921
med	-2922
istan	-2923
▁past	-2924
inning	-2925
bra	-2926
fang	-2927
icult	-2928
▁conf	-2929
▁along	-2930
▁fly	-2931
▁sow	-2932
ature	-2933
▁var	-2934
▁oper	-2935
ral	-2936
ocus	-2937
▁Familie	-2938
▁oce	-2939
grund	-2940
indung	-2941
▁clear	-2942
▁questions	-2943
▁dah	-2944
▁sym	-2945
itting	-2946
▁rather	-2947
bare	-2948
ively	-2949
▁Wort	-2950
▁Verhalten	-2951
▁meet	-2952
▁name	-2953
▁tro	-2954
▁sechs	-2955
▁company	-2956
inal	-2957
wards	-2958
▁against	-2959
ichen	-2960
immer	-2961
▁Sc	-2962
▁cra	-2963
▁eins	-2964
▁Oder	-2965
uchten	-2966
igung	-2967
▁opportun	-2968
▁Them	-2969
▁test	-2970
▁Sk	-2971
▁guys	-2972
▁Ir	-2973
haps	-2974
▁Google	-2975
äuf	-2976
ager	-2977
ames	-2978
onne	-2979
unge	-2980
▁ähn	-2981
▁created	-2982
▁tradition	-2983
50	-2984
▁Kön	-2985
gramm	-2986
▁Far	-2987
▁free	-2988
▁turns	-2989
bild	-2990
reis	-2991
▁pot	-2992
▁hours	-2993
ahn	-2994
▁Sü	-2995
▁mother	-2996
▁worked	-2997
uc	-2998
▁Then	-2999
▁bott	-3000
▁Fol	-3001
ished	-3002
▁priv	-3003
ey	-3004
▁Lin	-3005
▁aud	-3006
▁opt	-3007
▁Bilder	-3008
of	-3009
änger	-3010
▁colle	-3011
▁focus	-3012
ologie	-3013
▁Sprache	-3014
▁del	-3015
inger	-3016
▁Gruppe	-3017
endet	-3018
▁jedem	-3019
scheiden	-3020
▁couldn	-3021
▁Beweg	-3022
▁American	-3023
ump	-3024
▁Fü	-3025
▁wohl	-3026
▁relations	-3027
▁Herz	-3028
▁gesam	-3029
▁extrem	-3030
ließlich	-3031
▁mov	-3032
▁Arch	-3033
ächt	-3034
▁Doch	-3035
roll	-3036
▁pred	-3037
merk	-3038
▁Weil	-3039
▁Ergeb	-3040
▁statt	-3041
▁Eltern	-3042
gestellt	-3043
▁Entscheid	-3044
ef	-3045
▁least	-3046
▁sometimes	-3047
▁Beh	-3048
richten	-3049
▁Auto	-3050
▁Richt	-3051
▁überh	-3052
▁Oh	-3053
▁hoff	-3054
erk	-3055
▁meas	-3056
▁Angst	-3057
iste	-3058
oter	-3059
orden	-3060
ützen	-3061
▁beein	-3062
▁liter	-3063
▁braucht	-3064
fall	-3065
▁lead	-3066
▁Vielleicht	-3067
▁vorstellen	-3068
ither	-3069
punkt	-3070
▁gave	-3071
▁Macht	-3072
istic	-3073
▁news	-3074
▁systems	-3075
▁difficult	-3076
▁irgendwie	-3077
annte	-3078
▁ries	-3079
iqu	-3080
▁11	-3081
ource	-3082
▁everyone	-3083
▁Jahrhundert	-3084
ehe	-3085
esse	-3086
▁amount	-3087
▁non	-3088
▁risk	-3089
▁Durch	-3090
ples	-3091
tend	-3092
▁Ad	-3093
▁network	-3094
uh	-3095
▁Char	-3096
antast	-3097
▁others	-3098
ätz	-3099
osp	-3100
▁redu	-3101
▁bewegen	-3102
▁disease	-3103
kehr	-3104
führt	-3105
indet	-3106
▁third	-3107
▁Kultur	-3108
amera	-3109
▁thousands	-3110
ined	-3111
▁hold	-3112
▁Vater	-3113
▁glück	-3114
▁happy	-3115
▁richt	-3116
sk	-3117
▁arm	-3118
▁film	-3119
▁state	-3120
ask	-3121
▁Fir	-3122
▁Some	-3123
▁verschiedenen	-3124
ekte	-3125
▁lik	-3126
akter	-3127
▁poor	-3128
▁house	-3129
▁Stunden	-3130
▁lots	-3131
▁listen	-3132
apan	-3133
▁Luft	-3134
▁HI	-3135
utions	-3136
▁early	-3137
▁anal	-3138
▁Kor	-3139
aster	-3140
▁invol	-3141
aug	-3142
view	-3143
ässt	-3144
▁arg	-3145
ublik	-3146
▁field	-3147
▁erhalten	-3148
tens	-3149
▁Bro	-3150
▁learning	-3151
ams	-3152
▁neu	-3153
▁deep	-3154
▁natural	-3155
anger	-3156
schnitt	-3157
▁einzel	-3158
Oh	-3159
anten	-3160
▁instead	-3161
icherheit	-3162
▁entwickeln	-3163
alax	-3164
iken	-3165
▁einigen	-3166
▁outside	-3167
apt	-3168
öhn	-3169
▁Video	-3170
cing	-3171
▁einzige	-3172
▁manchmal	-3173
▁difference	-3174
imp	-3175
▁death	-3176
▁Freund	-3177
▁wollten	-3178
▁behavior	-3179
ison	-3180
▁HIV	-3181
▁mult	-3182
▁Masch	-3183
▁seven	-3184
▁16	-3185
ante	-3186
ried	-3187
ules	-3188
▁Bei	-3189
▁Sachen	-3190
pect	-3191
▁oil	-3192
illions	-3193
▁cut	-3194
zeugen	-3195
▁Hause	-3196
▁behind	-3197
▁Sinn	-3198
▁sage	-3199
▁stell	-3200
▁taken	-3201
▁führen	-3202
▁interact	-3203
ox	-3204
führ	-3205
iben	-3206
▁erk	-3207
▁Veränder	-3208
igte	-3209
äten	-3210
▁Europe	-3211
▁machine	-3212
ning	-3213
ortra	-3214
▁beiden	-3215
▁bestimm	-3216
▁black	-3217
▁super	-3218
▁14	-3219
ester	-3220
▁ändern	-3221
häng	-3222
ising	-3223
itions	-3224
▁nämlich	-3225
▁Patienten	-3226
druck	-3227
▁area	-3228
▁dein	-3229
lossen	-3230
▁Krebs	-3231
▁verwenden	-3232
bes	-3233
▁Stück	-3234
▁Zw	-3235
▁eher	-3236
▁close	-3237
▁middle	-3238
▁Material	-3239
▁eyes	-3240
system	-3241
▁innerhalb	-3242
ony	-3243
▁frü	-3244
▁Werk	-3245
▁pick	-3246
▁Kindern	-3247
▁changed	-3248
▁connect	-3249
St	-3250
rü	-3251
▁cann	-3252
▁collect	-3253
oph	-3254
▁Beg	-3255
▁tem	-3256
▁drug	-3257
erweise	-3258
▁century	-3259
▁beginnen	-3260
▁relationship	-3261
hand	-3262
ölker	-3263
▁green	-3264
▁impro	-3265
▁besten	-3266
uz	-3267
▁experiment	-3268
▁unterschied	-3269
▁Techn	-3270
▁moving	-3271
ully	-3272
▁relig	-3273
▁pattern	-3274
tt	-3275
▁Gebäude	-3276
▁Organis	-3277
▁unglaublich	-3278
opp	-3279
pfen	-3280
▁bel	-3281
▁John	-3282
!"	-3283
▁Hö	-3284
▁vi	-3285
uren	-3286
▁getan	-3287
▁common	-3288
▁recent	-3289
▁record	-3290
ards	-3291
wand	-3292
▁Rück	-3293
▁verändert	-3294
▁fort	-3295
▁event	-3296
▁short	-3297
rew	-3298
bere	-3299
ahren	-3300
zieren	-3301
▁comput	-3302
▁explain	-3303
▁Regierung	-3304
▁wonderful	-3305
▁sug	-3306
ummer	-3307
▁genet	-3308
▁90	-3309
▁hands	-3310
uld	-3311
ehn	-3312
▁break	-3313
aktion	-3314
ustrie	-3315
▁given	-3316
▁Cl	-3317
unch	-3318
▁serv	-3319
▁menschlichen	-3320
▁Aufga	-3321
zustellen	-3322
ana	-3323
▁leave	-3324
▁terms	-3325
uelle	-3326
min	-3327
ließen	-3328
▁fantast	-3329
▁absolute	-3330
lev	-3331
oms	-3332
ests	-3333
ling	-3334
▁turned	-3335
▁obvious	-3336
▁interessant	-3337
ney	-3338
augh	-3339
alität	-3340
▁takes	-3341
▁perhaps	-3342
▁yourself	-3343
▁überhaupt	-3344
ased	-3345
▁occ	-3346
▁const	-3347
▁wegen	-3348
▁Bezieh	-3349
▁Gleich	-3350
▁seeing	-3351
genommen	-3352
▁culture	-3353
zy	-3354
▁schauen	-3355
▁versucht	-3356
▁17	-3357
gang	-3358
▁easy	-3359
▁Heraus	-3360
text	-3361
▁squ	-3362
auben	-3363
ufen	-3364
▁tut	-3365
▁digital	-3366
▁evolution	-3367
▁Ziel	-3368
▁zwar	-3369
▁paper	-3370
▁beginning	-3371
berfl	-3372
▁fand	-3373
▁stra	-3374
▁Chris	-3375
▁local	-3376
▁Universum	-3377
▁population	-3378
oud	-3379
okrat	-3380
isieren	-3381
▁Umwelt	-3382
▁gleichen	-3383
ee	-3384
▁online	-3385
oten	-3386
▁ern	-3387
▁needs	-3388
▁finally	-3389
urt	-3390
jor	-3391
tete	-3392
▁zer	-3393
▁Lage	-3394
▁inde	-3395
▁jour	-3396
▁offen	-3397
▁pract	-3398
ove	-3399
▁incl	-3400
▁parts	-3401
▁Dieser	-3402
▁Länder	-3403
▁Publik	-3404
▁Roboter	-3405
▁lim	-3406
▁communic	-3407
▁simp	-3408
▁image	-3409
▁Anfang	-3410
ände	-3411
▁Car	-3412
▁beob	-3413
▁entst	-3414
rab	-3415
▁World	-3416
▁reach	-3417
Well	-3418
▁cal	-3419
itect	-3420
▁Just	-3421
▁Meer	-3422
▁cannot	-3423
▁low	-3424
▁mathemat	-3425
▁personal	-3426
ina	-3427
haft	-3428
▁Res	-3429
ology	-3430
▁Rest	-3431
▁blue	-3432
▁profess	-3433
enne	-3434
▁Kle	-3435
▁allem	-3436
▁moral	-3437
▁Wochen	-3438
eht	-3439
ängt	-3440
kü	-3441
omat	-3442
▁Zug	-3443
▁ster	-3444
▁eight	-3445
onen	-3446
▁Prozess	-3447
▁whatever	-3448
▁micro	-3449
ikro	-3450
orie	-3451
ially	-3452
▁during	-3453
▁needed	-3454
▁niemand	-3455
ama	-3456
aren	-3457
▁bir	-3458
▁sat	-3459
▁Lehrer	-3460
▁Erfahrung	-3461
▁Mil	-3462
▁arbeite	-3463
▁Su	-3464
▁Har	-3465
▁longer	-3466
▁treffen	-3467
alif	-3468
▁Essen	-3469
▁friend	-3470
▁realized	-3471
umm	-3472
idence	-3473
völker	-3474
▁Japan	-3475
▁201	-3476
sicht	-3477
▁Städ	-3478
▁einge	-3479
▁expect	-3480
▁Stellen	-3481
▁powerful	-3482
wert	-3483
year	-3484
▁Nat	-3485
▁Typ	-3486
▁Zum	-3487
▁spra	-3488
▁thank	-3489
▁weltw	-3490
▁grand	-3491
▁mussten	-3492
▁ill	-3493
▁obs	-3494
▁scale	-3495
▁nächste	-3496
▁Prä	-3497
▁ple	-3498
inder	-3499
▁fühl	-3500
▁present	-3501
▁interested	-3502
▁Herausforder	-3503
▁198	-3504
baren	-3505
▁Part	-3506
▁entf	-3507
▁mole	-3508
▁bereit	-3509
ills	-3510
▁Bau	-3511
gress	-3512
▁desc	-3513
▁ocean	-3514
olz	-3515
▁team	-3516
▁major	-3517
▁Dingen	-3518
by	-3519
ehl	-3520
wär	-3521
▁leg	-3522
▁sun	-3523
ledge	-3524
orten	-3525
iziert	-3526
▁perform	-3527
bel	-3528
lam	-3529
erns	-3530
nahme	-3531
▁size	-3532
▁Mittel	-3533
▁folgen	-3534
▁simply	-3535
▁perfect	-3536
ötz	-3537
▁Fahr	-3538
book	-3539
▁buy	-3540
verage	-3541
ziehen	-3542
▁Tages	-3543
▁enc	-3544
▁kamen	-3545
▁surpr	-3546
bte	-3547
oon	-3548
zub	-3549
▁vö	-3550
ingt	-3551
▁Job	-3552
▁fore	-3553
▁orig	-3554
▁sozial	-3555
▁parents	-3556
lungs	-3557
udden	-3558
▁Tiere	-3559
▁robot	-3560
▁tried	-3561
▁Entwicklung	-3562
ele	-3563
haus	-3564
▁May	-3565
▁Tier	-3566
auso	-3567
▁Pap	-3568
ritte	-3569
▁meines	-3570
ently	-3571
▁conc	-3572
lo	-3573
▁Vir	-3574
▁cle	-3575
fully	-3576
▁okay	-3577
▁access	-3578
▁Freunde	-3579
▁weitere	-3580
▁companies	-3581
▁post	-3582
ources	-3583
▁13	-3584
▁erre	-3585
▁stay	-3586
▁Grunde	-3587
▁falsch	-3588
▁Geschäft	-3589
omin	-3590
▁Trans	-3591
hor	-3592
icks	-3593
▁Kap	-3594
anach	-3595
▁Verein	-3596
▁21	-3597
▁Publikum	-3598
oun	-3599
▁Rei	-3600
▁near	-3601
schaffen	-3602
mm	-3603
iale	-3604
ächst	-3605
▁gone	-3606
▁People	-3607
▁ground	-3608
▁architect	-3609
▁fundament	-3610
ai	-3611
cious	-3612
▁eigene	-3613
▁Unterschied	-3614
▁surv	-3615
▁quickly	-3616
▁economic	-3617
pid	-3618
▁worden	-3619
ban	-3620
▁hab	-3621
▁Klim	-3622
▁value	-3623
▁bringt	-3624
▁fühlen	-3625
▁Sicherheit	-3626
▁jo	-3627
▁Lassen	-3628
hle	-3629
▁Dr	-3630
statt	-3631
▁lässt	-3632
▁press	-3633
bor	-3634
cle	-3635
▁Boden	-3636
▁media	-3637
▁father	-3638
▁wusste	-3639
chter	-3640
▁felt	-3641
▁erstaun	-3642
▁ess	-3643
achst	-3644
elten	-3645
inary	-3646
▁Right	-3647
▁unten	-3648
merikan	-3649
▁inspir	-3650
▁Möglichkeiten	-3651
af	-3652
isse	-3653
itter	-3654
▁send	-3655
▁South	-3656
▁weeks	-3657
ibility	-3658
ouch	-3659
▁Tage	-3660
cially	-3661
▁Hilfe	-3662
▁Polit	-3663
▁recogn	-3664
▁solche	-3665
▁support	-3666
▁Struktur	-3667
iny	-3668
zentr	-3669
▁Wahl	-3670
▁Markt	-3671
▁spent	-3672
ilar	-3673
ised	-3674
▁hy	-3675
hood	-3676
▁Sek	-3677
▁ged	-3678
aring	-3679
▁enorm	-3680
▁schlecht	-3681
annten	-3682
▁hervor	-3683
▁special	-3684
äss	-3685
▁fu	-3686
bert	-3687
sein	-3688
▁dark	-3689
▁feed	-3690
▁Haupt	-3691
▁cities	-3692
▁völlig	-3693
pression	-3694
lef	-3695
falls	-3696
▁feet	-3697
▁gleiche	-3698
▁Ben	-3699
▁Nein	-3700
▁kont	-3701
▁essen	-3702
▁direkt	-3703
▁obwohl	-3704
▁Pa	-3705
▁crit	-3706
isiert	-3707
antwort	-3708
izieren	-3709
ötzlich	-3710
▁approach	-3711
fgh	-3712
ales	-3713
imme	-3714
rogen	-3715
▁shows	-3716
▁damals	-3717
▁dessen	-3718
▁strong	-3719
▁menschliche	-3720
fluss	-3721
▁Staaten	-3722
▁reality	-3723
▁sitting	-3724
▁70	-3725
▁Met	-3726
▁Web	-3727
▁deren	-3728
▁photograph	-3729
bon	-3730
ows	-3731
zin	-3732
ived	-3733
part	-3734
▁fish	-3735
flanzen	-3736
▁humans	-3737
▁letzte	-3738
▁schreiben	-3739
You	-3740
▁key	-3741
▁Meth	-3742
▁grund	-3743
▁jedoch	-3744
▁Bereich	-3745
▁ability	-3746
acy	-3747
ains	-3748
ograf	-3749
▁requ	-3750
▁known	-3751
▁wären	-3752
▁opportunity	-3753
agn	-3754
isc	-3755
lin	-3756
ops	-3757
uth	-3758
▁Per	-3759
▁neg	-3760
ails	-3761
▁Mars	-3762
usion	-3763
▁Neur	-3764
▁draw	-3765
rieden	-3766
▁Stand	-3767
reg	-3768
elte	-3769
▁direct	-3770
▁Elekt	-3771
▁either	-3772
▁fragte	-3773
sc	-3774
fghan	-3775
izing	-3776
nahmen	-3777
▁Thema	-3778
▁instit	-3779
▁leaders	-3780
▁betrachten	-3781
edeut	-3782
▁cover	-3783
▁lösen	-3784
▁phone	-3785
▁unters	-3786
irm	-3787
▁Gren	-3788
samkeit	-3789
▁structure	-3790
yl	-3791
▁Kü	-3792
zial	-3793
▁App	-3794
▁lab	-3795
▁sollen	-3796
▁National	-3797
abil	-3798
raum	-3799
rote	-3800
itzen	-3801
▁areas	-3802
▁growth	-3803
▁besteht	-3804
▁hor	-3805
▁pres	-3806
▁Woche	-3807
▁Instit	-3808
rift	-3809
▁Ant	-3810
▁dad	-3811
stein	-3812
▁ange	-3813
▁virt	-3814
▁write	-3815
▁economy	-3816
▁measure	-3817
lex	-3818
What	-3819
ators	-3820
▁lost	-3821
▁Denken	-3822
▁teilen	-3823
itze	-3824
▁bleiben	-3825
Was	-3826
nal	-3827
▁Tre	-3828
▁sudden	-3829
▁Gedanken	-3830
▁anderer	-3831
ball	-3832
▁main	-3833
iction	-3834
zellen	-3835
▁Nacht	-3836
▁changes	-3837
este	-3838
aught	-3839
ierend	-3840
▁democ	-3841
▁Red	-3842
▁box	-3843
▁vorher	-3844
▁wouldn	-3845
▁schwierig	-3846
▁incredible	-3847
▁entscheiden	-3848
com	-3849
ades	-3850
hält	-3851
ilos	-3852
lang	-3853
wusst	-3854
zogen	-3855
arbeitet	-3856
▁brought	-3857
öße	-3858
▁Ist	-3859
▁fear	-3860
▁foot	-3861
▁Kraft	-3862
▁based	-3863
▁zuvor	-3864
▁animal	-3865
▁Viele	-3866
▁Gesicht	-3867
▁individual	-3868
▁Bra	-3869
▁Oze	-3870
▁eat	-3871
▁stark	-3872
▁surface	-3873
▁consider	-3874
▁Erw	-3875
▁plan	-3876
▁slow	-3877
▁step	-3878
gebung	-3879
▁Monate	-3880
▁suchen	-3881
▁political	-3882
▁caus	-3883
orning	-3884
▁bottom	-3885
the	-3886
▁pull	-3887
▁genauso	-3888
▁gemeinsam	-3889
wirk	-3890
▁Fort	-3891
▁teil	-3892
▁ansch	-3893
▁benöt	-3894
▁Ländern	-3895
▁realize	-3896
cin	-3897
oes	-3898
▁bar	-3899
▁har	-3900
▁log	-3901
ürger	-3902
▁Lond	-3903
▁Ster	-3904
▁sieben	-3905
▁stellt	-3906
▁English	-3907
eng	-3908
elbe	-3909
zeuge	-3910
▁Nahr	-3911
▁Tats	-3912
▁West	-3913
▁prim	-3914
▁Namen	-3915
▁clos	-3916
▁books	-3917
▁persön	-3918
▁attention	-3919
▁funktionieren	-3920
▁inte	-3921
▁Mot	-3922
▁verm	-3923
▁bitte	-3924
▁führt	-3925
▁ang	-3926
frast	-3927
▁fight	-3928
▁Lösung	-3929
▁modern	-3930
▁respons	-3931
▁univers	-3932
▁challenge	-3933
eum	-3934
▁ed	-3935
bene	-3936
uell	-3937
▁Sym	-3938
ilden	-3939
▁Yeah	-3940
▁ermö	-3941
uellen	-3942
▁Ihren	-3943
ausende	-3944
▁kaufen	-3945
▁zweite	-3946
▁Familien	-3947
▁amerikan	-3948
▁international	-3949
▁Ko	-3950
▁aw	-3951
ollen	-3952
ission	-3953
▁consum	-3954
▁numbers	-3955
▁gefunden	-3956
ival	-3957
orge	-3958
wesen	-3959
▁born	-3960
gefühl	-3961
osition	-3962
▁indust	-3963
▁verbunden	-3964
ks	-3965
zeigt	-3966
ustain	-3967
▁Innov	-3968
▁force	-3969
▁molec	-3970
▁technologies	-3971
▁fall	-3972
▁verbess	-3973
kre	-3974
isst	-3975
▁Bar	-3976
ouble	-3977
▁Europ	-3978
▁blood	-3979
▁average	-3980
▁sterben	-3981
▁knowledge	-3982
ips	-3983
rän	-3984
iber	-3985
ynam	-3986
ances	-3987
finden	-3988
ikaner	-3989
▁Liebe	-3990
▁Arbeits	-3991
▁feeling	-3992
roh	-3993
▁Mo	-3994
ieten	-3995
▁hast	-3996
▁mechan	-3997
▁größten	-3998
▁developed	-3999
oid	-4000
vest	-4001
▁Fin	-4002
▁Park	-4003
▁trotz	-4004
▁wrote	-4005
▁giving	-4006
▁forward	-4007
We	-4008
cks	-4009
▁tw	-4010
ored	-4011
▁emer	-4012
▁liebe	-4013
▁Afghan	-4014
▁London	-4015
▁Modell	-4016
▁größte	-4017
▁impact	-4018
entially	-4019
▁langsam	-4020
▁unseres	-4021
weis	-4022
▁Dam	-4023
▁deg	-4024
▁fail	-4025
▁Bedeut	-4026
▁meaning	-4027
▁physical	-4028
▁500	-4029
alter	-4030
atten	-4031
reifen	-4032
▁lesen	-4033
prochen	-4034
▁welches	-4035
zw	-4036
bau	-4037
oper	-4038
▁Wert	-4039
▁comb	-4040
ensicht	-4041
▁Kr	-4042
ikal	-4043
jekte	-4044
▁Zellen	-4045
▁theory	-4046
▁morning	-4047
▁Wissenschaftler	-4048
ja	-4049
▁Mich	-4050
ichter	-4051
▁visual	-4052
igkeiten	-4053
▁draußen	-4054
▁komplex	-4055
.,	-4056
go	-4057
Das	-4058
ählen	-4059
▁ment	-4060
unehmen	-4061
▁transform	-4062
usch	-4063
ücke	-4064
inzip	-4065
▁Autos	-4066
▁growing	-4067
berfläche	-4068
In	-4069
▁CO	-4070
aben	-4071
reck	-4072
▁vol	-4073
▁Hoff	-4074
▁Sehen	-4075
aliforn	-4076
▁Archite	-4077
▁national	-4078
gegen	-4079
mosph	-4080
▁nice	-4081
▁vill	-4082
▁ersch	-4083
ube	-4084
idge	-4085
äuft	-4086
assion	-4087
▁patients	-4088
▁Best	-4089
▁farm	-4090
▁Heute	-4091
▁Bewegung	-4092
▁electric	-4093
▁24	-4094
▁map	-4095
produ	-4096
▁Brit	-4097
▁miles	-4098
ünstler	-4099
▁spread	-4100
▁audience	-4101
▁erinnern	-4102
bol	-4103
jen	-4104
res	-4105
▁197	-4106
▁Dav	-4107
▁Krieg	-4108
▁gelernt	-4109
▁scheint	-4110
▁schließlich	-4111
ünde	-4112
▁syn	-4113
chsel	-4114
▁seems	-4115
▁white	-4116
▁Revolution	-4117
▁scientists	-4118
▁images	-4119
▁running	-4120
▁verschw	-4121
▁literally	-4122
ehm	-4123
▁Jed	-4124
▁Mag	-4125
▁arr	-4126
hören	-4127
kraft	-4128
▁Cent	-4129
▁path	-4130
▁prop	-4131
▁tief	-4132
▁bewusst	-4133
▁Programm	-4134
ktor	-4135
obody	-4136
▁fert	-4137
▁understanding	-4138
put	-4139
chie	-4140
inos	-4141
jähr	-4142
lauf	-4143
▁ign	-4144
licht	-4145
▁bist	-4146
▁rein	-4147
▁worth	-4148
▁anyone	-4149
▁center	-4150
▁starting	-4151
▁Natürlich	-4152
ersp	-4153
ploy	-4154
▁favor	-4155
äß	-4156
▁nahm	-4157
▁gives	-4158
▁serious	-4159
▁Gemeinschaft	-4160
ieg	-4161
▁gewesen	-4162
völkerung	-4163
son	-4164
▁flo	-4165
▁climate	-4166
▁erschaffen	-4167
▁et	-4168
ätze	-4169
▁196	-4170
▁ice	-4171
igent	-4172
ochen	-4173
▁Führ	-4174
estern	-4175
▁Labor	-4176
▁Reihe	-4177
▁tools	-4178
▁jemals	-4179
bten	-4180
▁Gef	-4181
▁led	-4182
organ	-4183
▁sehe	-4184
▁North	-4185
▁beeinfl	-4186
iot	-4187
uit	-4188
ativ	-4189
▁größer	-4190
▁passieren	-4191
head	-4192
▁Mikro	-4193
▁guess	-4194
▁mache	-4195
▁stage	-4196
▁Schritt	-4197
▁erklären	-4198
ID	-4199
eim	-4200
ends	-4201
ores	-4202
▁Kat	-4203
▁Süd	-4204
▁flu	-4205
▁Alle	-4206
▁dead	-4207
▁avail	-4208
vention	-4209
▁telling	-4210
▁gegenüber	-4211
mar	-4212
▁übr	-4213
▁prin	-4214
▁color	-4215
▁fanden	-4216
▁gebaut	-4217
▁playing	-4218
▁Tatsache	-4219
▁hundreds	-4220
▁sn	-4221
▁Sol	-4222
▁civil	-4223
▁Medien	-4224
▁Muster	-4225
▁proper	-4226
▁Wahrheit	-4227
▁Technologien	-4228
ped	-4229
aged	-4230
▁Som	-4231
gessen	-4232
▁erfolg	-4233
▁kleines	-4234
▁similar	-4235
cond	-4236
▁anfangen	-4237
▁glücklich	-4238
▁Verbindung	-4239
▁revolution	-4240
iod	-4241
▁fair	-4242
▁hosp	-4243
agieren	-4244
▁Mathemat	-4245
▁Eis	-4246
▁Tit	-4247
▁emp	-4248
blick	-4249
▁road	-4250
gliche	-4251
▁nimmt	-4252
▁deshalb	-4253
afft	-4254
imin	-4255
▁300	-4256
asing	-4257
zeitig	-4258
▁bemer	-4259
▁neigh	-4260
▁Unsere	-4261
▁bekannt	-4262
Th	-4263
▁Tem	-4264
▁aren	-4265
gewöhn	-4266
▁Jeder	-4267
▁daraus	-4268
▁hinaus	-4269
▁leicht	-4270
▁beginnt	-4271
▁wachsen	-4272
▁Richtung	-4273
▁aussehen	-4274
▁discovered	-4275
use	-4276
ehler	-4277
▁text	-4278
andeln	-4279
▁Technik	-4280
▁möchten	-4281
▁unterst	-4282
▁geworden	-4283
▁miteinander	-4284
cen	-4285
▁Our	-4286
wegen	-4287
iation	-4288
▁Platz	-4289
▁neben	-4290
▁Anzahl	-4291
▁concept	-4292
▁creating	-4293
▁Tw	-4294
▁mom	-4295
ulture	-4296
▁nachdem	-4297
▁Studenten	-4298
▁wissenschaft	-4299
kn	-4300
umb	-4301
älfte	-4302
▁soon	-4303
▁protect	-4304
▁Rad	-4305
rolle	-4306
▁sell	-4307
▁Alles	-4308
▁Recht	-4309
ex	-4310
ras	-4311
▁San	-4312
entlichen	-4313
▁absolutely	-4314
▁Tatsächlich	-4315
▁1,	-4316
cker	-4317
▁führ	-4318
▁optim	-4319
▁polic	-4320
▁Produkt	-4321
yr	-4322
▁Je	-4323
otyp	-4324
▁ref	-4325
icans	-4326
zeugt	-4327
▁curr	-4328
▁prom	-4329
▁song	-4330
▁finan	-4331
▁neues	-4332
▁schwar	-4333
▁millions	-4334
▁def	-4335
▁eth	-4336
ragen	-4337
▁raus	-4338
forsch	-4339
▁alone	-4340
▁issue	-4341
▁travel	-4342
uchs	-4343
▁falls	-4344
▁medic	-4345
▁positive	-4346
▁plötzlich	-4347
gor	-4348
urity	-4349
▁Ihrem	-4350
▁block	-4351
▁perfe	-4352
▁danach	-4353
▁talked	-4354
▁Kranken	-4355
▁sustain	-4356
ites	-4357
▁mer	-4358
▁showed	-4359
▁movement	-4360
öst	-4361
iled	-4362
rael	-4363
▁cop	-4364
▁est	-4365
▁verloren	-4366
zens	-4367
▁fur	-4368
▁hon	-4369
▁Aben	-4370
▁konzentr	-4371
0,	-4372
▁la	-4373
ified	-4374
reiten	-4375
▁Teile	-4376
▁shape	-4377
▁bekommt	-4378
▁schrieb	-4379
cul	-4380
▁iP	-4381
anze	-4382
ille	-4383
wind	-4384
▁tat	-4385
▁zehn	-4386
itäten	-4387
▁among	-4388
▁truth	-4389
▁includ	-4390
▁entfernt	-4391
ered	-4392
▁toll	-4393
▁knows	-4394
▁Situation	-4395
▁verwendet	-4396
aubt	-4397
▁pack	-4398
andelt	-4399
setzen	-4400
▁Medik	-4401
▁Sicht	-4402
▁achie	-4403
▁Gewalt	-4404
pecially	-4405
▁genannt	-4406
▁development	-4407
▁acht	-4408
▁suff	-4409
▁Besch	-4410
▁Blick	-4411
▁David	-4412
▁Super	-4413
▁Einige	-4414
▁kleiner	-4415
▁incredibly	-4416
hy	-4417
▁Com	-4418
▁hil	-4419
▁Präs	-4420
▁fing	-4421
▁spir	-4422
▁wert	-4423
stellt	-4424
▁Stimme	-4425
▁Aufgabe	-4426
ügen	-4427
ining	-4428
▁rate	-4429
gorith	-4430
▁Bürger	-4431
▁Vortra	-4432
▁stellte	-4433
rig	-4434
lebt	-4435
▁Bas	-4436
▁Erk	-4437
▁Fuß	-4438
▁Ihrer	-4439
▁benef	-4440
▁period	-4441
▁gezeigt	-4442
▁Umgebung	-4443
▁recently	-4444
▁available	-4445
Sch	-4446
teilt	-4447
▁Stre	-4448
▁cars	-4449
gemein	-4450
▁entsch	-4451
▁Bildung	-4452
▁produce	-4453
▁experien	-4454
▁solution	-4455
▁Krankheit	-4456
▁Ira	-4457
▁dro	-4458
▁eye	-4459
▁findet	-4460
▁sofort	-4461
▁Deshalb	-4462
▁situation	-4463
auft	-4464
gten	-4465
▁jen	-4466
▁wid	-4467
recht	-4468
▁Face	-4469
▁elekt	-4470
osystem	-4471
▁attack	-4472
▁Afghanistan	-4473
▁Tat	-4474
▁mob	-4475
▁Frei	-4476
▁With	-4477
▁Eigen	-4478
▁sever	-4479
▁beschäft	-4480
▁fire	-4481
ichtet	-4482
▁guten	-4483
▁benutzt	-4484
▁Bedeutung	-4485
▁Vorstellung	-4486
xy	-4487
iko	-4488
▁pur	-4489
eiter	-4490
▁Phys	-4491
▁Viel	-4492
▁egal	-4493
▁sold	-4494
▁industry	-4495
aß	-4496
▁By	-4497
▁tö	-4498
▁Kam	-4499
▁cho	-4500
hnung	-4501
ussen	-4502
▁Nord	-4503
▁asking	-4504
▁chance	-4505
▁Während	-4506
▁resources	-4507
fern	-4508
rech	-4509
▁Ris	-4510
bsite	-4511
▁flow	-4512
▁infl	-4513
ritten	-4514
▁developing	-4515
▁Fä	-4516
rodu	-4517
▁sea	-4518
▁zwe	-4519
▁Team	-4520
▁baby	-4521
▁type	-4522
roffen	-4523
▁Ferns	-4524
bringen	-4525
▁niemals	-4526
▁innovation	-4527
▁nachdenken	-4528
ms	-4529
omb	-4530
▁hör	-4531
▁Prof	-4532
▁Stat	-4533
▁wall	-4534
▁blind	-4535
▁milit	-4536
▁solar	-4537
▁voice	-4538
▁designed	-4539
kon	-4540
▁lay	-4541
▁Blut	-4542
▁City	-4543
▁hoffe	-4544
▁touch	-4545
▁Chinese	-4546
wusstsein	-4547
▁pictures	-4548
▁Ju	-4549
itch	-4550
▁convers	-4551
▁subject	-4552
rate	-4553
▁solve	-4554
▁sonst	-4555
▁Sonnen	-4556
▁bigger	-4557
▁compassion	-4558
▁Entwicklungs	-4559
esh	-4560
inne	-4561
▁Wind	-4562
▁tiny	-4563
▁beide	-4564
▁becomes	-4565
▁komplett	-4566
▁offensicht	-4567
▁Wohl	-4568
▁Rolle	-4569
▁Regier	-4570
▁putting	-4571
▁Wirklich	-4572
SA	-4573
olf	-4574
rel	-4575
lage	-4576
▁hig	-4577
utage	-4578
▁Hälfte	-4579
▁Veränderung	-4580
IDS	-4581
yond	-4582
▁Bel	-4583
ideos	-4584
▁Foto	-4585
▁Zent	-4586
▁Aktiv	-4587
▁smart	-4588
▁carbon	-4589
▁verrück	-4590
lied	-4591
oose	-4592
▁Hel	-4593
▁Mex	-4594
▁yes	-4595
ändig	-4596
▁camp	-4597
▁Größe	-4598
▁haven	-4599
▁bezahl	-4600
▁issues	-4601
▁street	-4602
▁evidence	-4603
▁erfolgreich	-4604
des	-4605
▁cy	-4606
setz	-4607
▁Sat	-4608
dlich	-4609
ünden	-4610
▁Reise	-4611
unktion	-4612
▁allein	-4613
▁Amerika	-4614
▁fliegen	-4615
▁erreicht	-4616
▁Mc	-4617
▁oh	-4618
fore	-4619
umor	-4620
▁lif	-4621
▁nuc	-4622
unkte	-4623
äsent	-4624
▁Fisch	-4625
▁Erfolg	-4626
▁changing	-4627
▁kü	-4628
▁Arm	-4629
▁ult	-4630
feren	-4631
ängen	-4632
▁conv	-4633
▁drive	-4634
itation	-4635
▁Christ	-4636
zufinden	-4637
▁computers	-4638
▁especially	-4639
aly	-4640
äume	-4641
▁Dor	-4642
▁Tür	-4643
führen	-4644
▁zeige	-4645
▁gingen	-4646
▁general	-4647
▁reasons	-4648
▁weltweit	-4649
änge	-4650
▁Sau	-4651
iesen	-4652
▁bege	-4653
▁samm	-4654
utzutage	-4655
▁Straßen	-4656
▁ak	-4657
band	-4658
▁Iran	-4659
▁refle	-4660
▁except	-4661
▁liegen	-4662
▁Herausforderung	-4663
▁ann	-4664
▁bor	-4665
isierung	-4666
▁writing	-4667
▁Facebook	-4668
ique	-4669
▁Erd	-4670
▁Rel	-4671
▁sor	-4672
onstr	-4673
lassen	-4674
▁Mitte	-4675
▁trust	-4676
▁laufen	-4677
▁involved	-4678
▁Generation	-4679
▁generation	-4680
▁Ro	-4681
legt	-4682
▁Geist	-4683
▁bekam	-4684
▁links	-4685
▁moder	-4686
▁react	-4687
▁total	-4688
▁gefähr	-4689
▁Meinung	-4690
▁function	-4691
▁Ken	-4692
stens	-4693
▁Schü	-4694
▁zerst	-4695
▁Europa	-4696
▁hinein	-4697
▁integr	-4698
▁message	-4699
▁soziale	-4700
wirtschaft	-4701
akes	-4702
wood	-4703
▁Zwe	-4704
▁Chem	-4705
indern	-4706
agement	-4707
▁veröff	-4708
▁Prinzip	-4709
▁jemanden	-4710
sequen	-4711
▁ausge	-4712
▁mögen	-4713
▁predict	-4714
▁genommen	-4715
gra	-4716
asen	-4717
iers	-4718
racy	-4719
▁beyond	-4720
▁länger	-4721
▁kontroll	-4722
adem	-4723
ctors	-4724
ected	-4725
▁save	-4726
▁dream	-4727
▁rules	-4728
▁Straße	-4729
▁groups	-4730
▁lieben	-4731
▁Demokrat	-4732
kel	-4733
pfer	-4734
▁Kil	-4735
▁fix	-4736
▁hol	-4737
arily	-4738
▁ball	-4739
▁list	-4740
▁alten	-4741
▁fahren	-4742
▁ziehen	-4743
▁gegeben	-4744
▁died	-4745
ishing	-4746
▁lived	-4747
möglich	-4748
▁bacter	-4749
▁search	-4750
▁brachte	-4751
▁bestimmt	-4752
ehmer	-4753
ellow	-4754
▁towards	-4755
▁software	-4756
öh	-4757
▁anc	-4758
aking	-4759
▁dram	-4760
▁table	-4761
▁Kosten	-4762
▁device	-4763
▁several	-4764
▁conscious	-4765
sm	-4766
ta	-4767
Wir	-4768
ify	-4769
▁See	-4770
esser	-4771
▁unbe	-4772
▁daher	-4773
▁Wachst	-4774
▁strateg	-4775
▁betrachte	-4776
▁Fähigkeiten	-4777
▁Bab	-4778
ziert	-4779
▁rock	-4780
▁interessiert	-4781
ällt	-4782
▁Austr	-4783
▁virus	-4784
jenigen	-4785
▁Bakter	-4786
▁choice	-4787
▁necess	-4788
▁Mitgefühl	-4789
▁geschieht	-4790
back	-4791
iate	-4792
▁Nie	-4793
▁Einz	-4794
▁verh	-4795
▁First	-4796
▁girls	-4797
▁überw	-4798
erstoff	-4799
▁action	-4800
▁likely	-4801
ißen	-4802
plant	-4803
üssel	-4804
▁nine	-4805
indest	-4806
▁Hinter	-4807
▁setzen	-4808
anda	-4809
imal	-4810
ienst	-4811
olekü	-4812
▁Rich	-4813
▁empf	-4814
▁nein	-4815
▁Sonne	-4816
▁machten	-4817
▁Realität	-4818
lim	-4819
win	-4820
zer	-4821
▁Of	-4822
uals	-4823
▁Wör	-4824
▁wish	-4825
▁speed	-4826
▁schneller	-4827
room	-4828
▁Don	-4829
▁evol	-4830
olence	-4831
▁Preis	-4832
▁motiv	-4833
▁Medizin	-4834
▁geboren	-4835
zeh	-4836
ously	-4837
▁Ding	-4838
▁Eink	-4839
▁peace	-4840
▁Papier	-4841
▁compet	-4842
▁einfache	-4843
▁Vereinigten	-4844
▁particularly	-4845
zü	-4846
geht	-4847
pped	-4848
viel	-4849
▁Maß	-4850
▁Nur	-4851
▁gek	-4852
▁Psych	-4853
▁Where	-4854
▁faszin	-4855
▁gesamte	-4856
▁moved	-4857
▁vision	-4858
arbeiten	-4859
▁Forschung	-4860
▁character	-4861
ada	-4862
gem	-4863
▁ca	-4864
▁op	-4865
schw	-4866
älter	-4867
▁rich	-4868
ensive	-4869
▁games	-4870
▁nennt	-4871
▁danger	-4872
▁sounds	-4873
▁absolut	-4874
▁medical	-4875
iar	-4876
▁1.	-4877
ford	-4878
seite	-4879
abhäng	-4880
ologen	-4881
▁basic	-4882
▁Studie	-4883
▁office	-4884
▁herauszufinden	-4885
ech	-4886
▁akt	-4887
▁Firma	-4888
▁Strom	-4889
▁Städte	-4890
▁Zahlen	-4891
▁geschrieben	-4892
atte	-4893
ikel	-4894
stru	-4895
▁sent	-4896
ilosoph	-4897
▁stimmt	-4898
▁Schauen	-4899
▁anybody	-4900
▁further	-4901
▁schools	-4902
▁Maschine	-4903
▁obviously	-4904
zte	-4905
▁Von	-4906
▁sle	-4907
dessen	-4908
▁progress	-4909
▁wirtschaft	-4910
▁Gesundheits	-4911
oke	-4912
ette	-4913
▁Yes	-4914
▁onto	-4915
▁tend	-4916
▁potential	-4917
▁Entscheidungen	-4918
bung	-4919
ises	-4920
antly	-4921
flict	-4922
▁Mark	-4923
ground	-4924
▁mount	-4925
▁Ergebnis	-4926
▁teachers	-4927
▁materials	-4928
come	-4929
igens	-4930
▁gesprochen	-4931
enk	-4932
▁hit	-4933
unger	-4934
▁Wand	-4935
▁Will	-4936
▁multi	-4937
▁Israel	-4938
▁tragen	-4939
▁walking	-4940
▁Oberfläche	-4941
Pro	-4942
▁TV	-4943
atic	-4944
▁gas	-4945
teile	-4946
ätzen	-4947
▁Kommun	-4948
▁nachzu	-4949
▁dachten	-4950
ami	-4951
rief	-4952
▁400	-4953
▁Wel	-4954
▁histor	-4955
▁starts	-4956
▁totally	-4957
▁certainly	-4958
ny	-4959
artet	-4960
piele	-4961
▁Bücher	-4962
▁screen	-4963
▁anstatt	-4964
merksamkeit	-4965
lei	-4966
▁Any	-4967
▁Det	-4968
▁Baby	-4969
▁carry	-4970
▁track	-4971
▁quality	-4972
▁begannen	-4973
▁wichtiger	-4974
▁Nachrichten	-4975
oß	-4976
cts	-4977
bald	-4978
▁Russ	-4979
▁Maybe	-4980
▁Fehler	-4981
▁Pflanzen	-4982
ags	-4983
itor	-4984
▁fem	-4985
▁rece	-4986
▁repl	-4987
ometer	-4988
▁Karte	-4989
▁breat	-4990
▁biggest	-4991
▁examples	-4992
▁scientific	-4993
▁Aufmerksamkeit	-4994
icle	-4995
▁Abs	-4996
ivität	-4997
▁wants	-4998
bildung	-4999
▁Leiden	-5000
indungen	-5001
more	-5002
▁lok	-5003
▁frei	-5004
▁warm	-5005
isions	-5006
lungen	-5007
▁plant	-5008
▁notice	-5009
▁Auswirk	-5010
▁context	-5011
▁showing	-5012
▁extraord	-5013
▁Beziehung	-5014
auten	-5015
▁camera	-5016
▁Austral	-5017
▁student	-5018
▁ähnlich	-5019
uk	-5020
bur	-5021
▁Büro	-5022
▁großer	-5023
▁sprach	-5024
ological	-5025
▁transport	-5026
▁University	-5027
▁Eff	-5028
▁Pal	-5029
▁fam	-5030
enken	-5031
ücken	-5032
▁lern	-5033
wissen	-5034
▁Kolle	-5035
▁Schön	-5036
▁bewegt	-5037
ühren	-5038
▁bank	-5039
teilen	-5040
▁Alter	-5041
▁transl	-5042
▁Politik	-5043
▁represent	-5044
Die	-5045
▁Fle	-5046
▁Dorf	-5047
▁Islam	-5048
▁sequen	-5049
▁verurs	-5050
▁Jahrzeh	-5051
▁ansehen	-5052
▁Bewusstsein	-5053
fre	-5054
nern	-5055
▁door	-5056
▁Frank	-5057
▁Niger	-5058
▁activ	-5059
▁separ	-5060
▁zuerst	-5061
▁Hoffnung	-5062
▁Künstler	-5063
▁everywhere	-5064
▁fundamental	-5065
wh	-5066
▁bill	-5067
▁heut	-5068
▁cross	-5069
▁gearbeitet	-5070
feld	-5071
▁Hoch	-5072
▁bald	-5073
▁Kreat	-5074
▁ernst	-5075
▁finde	-5076
▁graph	-5077
▁sahen	-5078
▁memory	-5079
▁nobody	-5080
▁Gruppen	-5081
▁chemical	-5082
▁projects	-5083
heim	-5084
ämpfen	-5085
▁After	-5086
▁Druck	-5087
▁Telef	-5088
▁effic	-5089
▁kosten	-5090
▁Schulen	-5091
▁passierte	-5092
arf	-5093
▁Kan	-5094
leist	-5095
▁Baum	-5096
▁Bill	-5097
gendes	-5098
weisen	-5099
▁exciting	-5100
▁extremely	-5101
▁Experiment	-5102
ickt	-5103
▁appl	-5104
▁trees	-5105
▁verfü	-5106
plicated	-5107
▁capital	-5108
▁journey	-5109
▁largest	-5110
▁Einfluss	-5111
▁Sw	-5112
erve	-5113
like	-5114
▁mut	-5115
▁vorh	-5116
▁anges	-5117
▁dynam	-5118
▁junge	-5119
aughter	-5120
zeichnet	-5121
▁deliver	-5122
▁violence	-5123
▁Kontrolle	-5124
▁verlassen	-5125
▁Bevölkerung	-5126
mus	-5127
aute	-5128
ramm	-5129
▁Himm	-5130
▁Most	-5131
▁capt	-5132
▁Vortrag	-5133
▁particip	-5134
▁thousand	-5135
front	-5136
▁Terr	-5137
▁jobs	-5138
▁nahe	-5139
▁Genau	-5140
▁Meter	-5141
▁trial	-5142
▁Behand	-5143
▁früher	-5144
▁Fortsch	-5145
▁Evolution	-5146
▁beobachten	-5147
▁bestimmten	-5148
▁gleichzeitig	-5149
ari	-5150
ohl	-5151
itet	-5152
nete	-5153
zies	-5154
▁kur	-5155
▁birth	-5156
▁Regeln	-5157
▁terror	-5158
▁threat	-5159
▁versuchte	-5160
ror	-5161
krie	-5162
▁Act	-5163
inken	-5164
▁2000	-5165
▁Orte	-5166
▁Ress	-5167
▁Sohn	-5168
▁bein	-5169
▁prot	-5170
trauen	-5171
▁Seiten	-5172
▁results	-5173
▁security	-5174
▁sozialen	-5175
▁intelligen	-5176
ery	-5177
ley	-5178
upp	-5179
erei	-5180
▁150	-5181
▁hot	-5182
▁nar	-5183
oming	-5184
schie	-5185
▁Auch	-5186
▁park	-5187
▁sand	-5188
▁clean	-5189
▁kreat	-5190
▁meant	-5191
▁näher	-5192
une	-5193
▁Ke	-5194
isis	-5195
▁boy	-5196
astic	-5197
eless	-5198
▁lose	-5199
ements	-5200
▁Galax	-5201
▁kompl	-5202
▁plants	-5203
▁verbra	-5204
▁conflict	-5205
▁na	-5206
deck	-5207
onse	-5208
▁etc	-5209
▁Regen	-5210
peratur	-5211
unately	-5212
▁member	-5213
▁Software	-5214
▁perspect	-5215
▁suddenly	-5216
▁supposed	-5217
uad	-5218
abel	-5219
▁Vol	-5220
▁Ozean	-5221
ossible	-5222
▁Konzept	-5223
▁activity	-5224
▁einzelne	-5225
▁offensichtlich	-5226
vert	-5227
ützt	-5228
▁Fil	-5229
▁Bank	-5230
▁Verl	-5231
▁fill	-5232
ourcen	-5233
▁movie	-5234
▁named	-5235
▁region	-5236
▁sitzen	-5237
▁spezie	-5238
▁Monaten	-5239
▁wichtige	-5240
kr	-5241
▁sil	-5242
▁vac	-5243
iegen	-5244
wasser	-5245
▁labor	-5246
▁Versuch	-5247
▁favorite	-5248
▁Universität	-5249
IT	-5250
▁Sex	-5251
▁meth	-5252
▁galax	-5253
▁Wieder	-5254
▁Studien	-5255
▁nuclear	-5256
▁village	-5257
▁Demokratie	-5258
rage	-5259
▁ehr	-5260
▁ext	-5261
ulate	-5262
▁Arab	-5263
▁Zust	-5264
▁laun	-5265
altung	-5266
▁apart	-5267
▁crazy	-5268
▁Erinner	-5269
▁account	-5270
▁passion	-5271
▁ständig	-5272
▁watching	-5273
▁anschauen	-5274
▁eventually	-5275
▁Ag	-5276
erne	-5277
▁Hin	-5278
pidem	-5279
▁Plan	-5280
▁grew	-5281
▁role	-5282
▁skin	-5283
▁ready	-5284
▁Zugang	-5285
▁inform	-5286
▁models	-5287
sth	-5288
▁Trä	-5289
▁rid	-5290
▁Lauf	-5291
▁Oper	-5292
▁gehe	-5293
▁mine	-5294
▁return	-5295
▁creative	-5296
▁neighbor	-5297
▁position	-5298
▁connected	-5299
▁Menschheit	-5300
wür	-5301
▁35	-5302
▁NA	-5303
amin	-5304
etze	-5305
▁rot	-5306
ounds	-5307
▁East	-5308
▁Look	-5309
▁Eines	-5310
▁natür	-5311
ikation	-5312
▁Gebiet	-5313
▁Wörter	-5314
▁bleibt	-5315
▁faster	-5316
▁African	-5317
▁Reaktion	-5318
▁individuals	-5319
0.	-5320
▁Ed	-5321
itte	-5322
▁Col	-5323
▁Tro	-5324
ables	-5325
orfen	-5326
ächen	-5327
ausend	-5328
▁lands	-5329
▁prakt	-5330
▁urban	-5331
▁disapp	-5332
▁higher	-5333
▁richtige	-5334
▁Hy	-5335
erap	-5336
▁Even	-5337
▁aufge	-5338
underte	-5339
▁kannst	-5340
▁Washing	-5341
▁hospital	-5342
▁happiness	-5343
▁ö	-5344
aue	-5345
ils	-5346
letz	-5347
plex	-5348
▁inf	-5349
▁sod	-5350
▁poll	-5351
▁cause	-5352
▁immed	-5353
▁waste	-5354
▁emotion	-5355
▁private	-5356
▁teacher	-5357
▁collabor	-5358
▁democracy	-5359
▁somewhere	-5360
▁vergessen	-5361
ehow	-5362
obil	-5363
▁tar	-5364
eller	-5365
iegel	-5366
teten	-5367
aterie	-5368
▁Morgen	-5369
▁brains	-5370
▁richtigen	-5371
joy	-5372
▁Ser	-5373
▁safe	-5374
▁wild	-5375
ration	-5376
stehen	-5377
▁domin	-5378
▁meist	-5379
▁Stelle	-5380
▁appear	-5381
▁source	-5382
▁finding	-5383
▁continue	-5384
▁response	-5385
windigkeit	-5386
▁arbeitete	-5387
▁Washington	-5388
hol	-5389
▁Sa	-5390
▁Dah	-5391
▁Gut	-5392
▁zus	-5393
ender	-5394
▁Mehr	-5395
▁Spaß	-5396
▁hous	-5397
▁task	-5398
ativen	-5399
▁ihres	-5400
ustrial	-5401
▁erzählt	-5402
ragt	-5403
▁000	-5404
▁Ord	-5405
▁sorts	-5406
▁bilden	-5407
▁großes	-5408
▁nation	-5409
▁Nachbar	-5410
▁Richard	-5411
mp	-5412
ufe	-5413
etic	-5414
ählt	-5415
▁Los	-5416
▁Zeug	-5417
▁nied	-5418
ielten	-5419
schlag	-5420
▁tells	-5421
▁indeed	-5422
▁remark	-5423
▁buildings	-5424
prü	-5425
rom	-5426
ued	-5427
woh	-5428
klär	-5429
uern	-5430
▁Tas	-5431
reibt	-5432
▁Paul	-5433
▁rain	-5434
▁Armut	-5435
▁deine	-5436
▁shown	-5437
schluss	-5438
▁larger	-5439
▁products	-5440
▁Innovation	-5441
▁essentially	-5442
Wie	-5443
abl	-5444
unt	-5445
cape	-5446
imen	-5447
▁Asp	-5448
▁ine	-5449
▁Orten	-5450
▁adult	-5451
ilities	-5452
▁Gesetz	-5453
▁Molekü	-5454
▁Grenzen	-5455
▁allowed	-5456
▁hundert	-5457
▁objects	-5458
▁möglichen	-5459
▁verlieren	-5460
abr	-5461
lern	-5462
plan	-5463
wart	-5464
▁Who	-5465
verty	-5466
▁wife	-5467
▁minds	-5468
▁poverty	-5469
▁wussten	-5470
▁aussieht	-5471
▁Vergangen	-5472
▁zumindest	-5473
ägt	-5474
▁Gu	-5475
▁goal	-5476
▁phen	-5477
▁push	-5478
▁forms	-5479
▁impossible	-5480
▁produzieren	-5481
No	-5482
auch	-5483
ires	-5484
▁Are	-5485
▁Gel	-5486
▁swe	-5487
▁worse	-5488
▁Objekt	-5489
▁minute	-5490
▁Schüler	-5491
▁bessere	-5492
▁irgendwo	-5493
fs	-5494
con	-5495
▁Sm	-5496
nder	-5497
▁Bud	-5498
▁lau	-5499
▁Twitter	-5500
▁erlaubt	-5501
▁überras	-5502
▁Nachricht	-5503
▁verbessern	-5504
▁communities	-5505
ec	-5506
ulpt	-5507
spiel	-5508
▁Gene	-5509
▁Sign	-5510
▁late	-5511
▁Tagen	-5512
▁bunch	-5513
▁taught	-5514
▁England	-5515
▁Spezies	-5516
▁Personen	-5517
sta	-5518
ünft	-5519
arian	-5520
odies	-5521
▁citi	-5522
tember	-5523
▁Franc	-5524
▁earth	-5525
▁ended	-5526
▁enjoy	-5527
▁höher	-5528
isation	-5529
▁princi	-5530
▁colleag	-5531
▁suggest	-5532
▁demonstr	-5533
▁versuche	-5534
▁Mathematik	-5535
rem	-5536
üss	-5537
▁Wür	-5538
atory	-5539
▁cart	-5540
▁echt	-5541
▁Gerät	-5542
▁above	-5543
▁afford	-5544
▁fertig	-5545
▁launch	-5546
▁voller	-5547
legenheit	-5548
▁signific	-5549
bit	-5550
mals	-5551
▁bal	-5552
▁bur	-5553
erman	-5554
▁burn	-5555
▁deut	-5556
▁rele	-5557
▁drugs	-5558
▁stick	-5559
▁erklär	-5560
▁Beispiele	-5561
▁complicated	-5562
▁traditional	-5563
▁nachzudenken	-5564
▁Vergangenheit	-5565
▁Ker	-5566
▁AIDS	-5567
▁dete	-5568
▁fine	-5569
▁site	-5570
▁Ebene	-5571
▁Invest	-5572
▁allows	-5573
▁points	-5574
izations	-5575
▁medizin	-5576
fel	-5577
pts	-5578
▁tru	-5579
▁Like	-5580
▁Sand	-5581
▁erwäh	-5582
▁discuss	-5583
▁massive	-5584
▁families	-5585
▁interest	-5586
▁Krankheiten	-5587
edia	-5588
mand	-5589
▁Bot	-5590
▁Erf	-5591
▁Uhr	-5592
bauen	-5593
▁Haut	-5594
▁Kong	-5595
▁cook	-5596
▁wait	-5597
reitet	-5598
▁affect	-5599
▁series	-5600
▁arbeitet	-5601
▁gebracht	-5602
▁Bakterien	-5603
▁conditions	-5604
▁heutzutage	-5605
▁Wirklichkeit	-5606
ürz	-5607
edom	-5608
gere	-5609
▁kre	-5610
räfte	-5611
zusch	-5612
änden	-5613
▁Kern	-5614
▁selt	-5615
though	-5616
▁Feuer	-5617
▁attra	-5618
▁nenne	-5619
▁Terror	-5620
▁altern	-5621
▁doctor	-5622
▁führte	-5623
▁distrib	-5624
▁schreck	-5625
▁gewinnen	-5626
▁electricity	-5627
zwe	-5628
▁Na	-5629
▁mist	-5630
▁Daher	-5631
▁cases	-5632
▁lower	-5633
▁older	-5634
▁Firmen	-5635
▁befinden	-5636
▁gesamten	-5637
▁emotional	-5638
▁extraordinary	-5639
kelet	-5640
äufig	-5641
▁tree	-5642
ferenz	-5643
▁Konfl	-5644
▁denkt	-5645
▁choose	-5646
▁phenomen	-5647
▁training	-5648
▁perspective	-5649
Re	-5650
imb	-5651
iced	-5652
lier	-5653
▁roll	-5654
ruction	-5655
wendung	-5656
▁stress	-5657
▁Sekunden	-5658
▁gekommen	-5659
▁standing	-5660
▁successful	-5661
ids	-5662
reng	-5663
annen	-5664
icians	-5665
▁Leist	-5666
▁Worte	-5667
▁Können	-5668
▁crisis	-5669
entliche	-5670
▁excited	-5671
▁introdu	-5672
▁somehow	-5673
▁Einstein	-5674
▁medicine	-5675
dom	-5676
ser	-5677
falt	-5678
stre	-5679
ured	-5680
▁erg	-5681
▁mis	-5682
▁oxy	-5683
drück	-5684
rochen	-5685
▁Linie	-5686
▁shift	-5687
▁author	-5688
▁einges	-5689
▁killed	-5690
▁pieces	-5691
▁prison	-5692
▁Theorie	-5693
▁reading	-5694
▁solchen	-5695
▁decision	-5696
gy	-5697
äte	-5698
▁Mü	-5699
▁Del	-5700
▁Ern	-5701
▁inn	-5702
altet	-5703
orben	-5704
▁Zwei	-5705
▁kept	-5706
vented	-5707
▁gewalt	-5708
▁manche	-5709
▁usually	-5710
▁interview	-5711
ingu	-5712
merz	-5713
olly	-5714
blich	-5715
kommt	-5716
▁traf	-5717
▁upon	-5718
▁winz	-5719
▁occur	-5720
ruption	-5721
▁keiner	-5722
▁morgen	-5723
▁content	-5724
▁bacteria	-5725
▁erzeugen	-5726
▁increase	-5727
▁trotzdem	-5728
beh	-5729
osm	-5730
pol	-5731
▁Mr	-5732
mark	-5733
▁cat	-5734
▁sky	-5735
▁luck	-5736
▁purp	-5737
▁town	-5738
▁vert	-5739
machen	-5740
▁alive	-5741
zugehen	-5742
ständnis	-5743
▁neurons	-5744
▁einzelnen	-5745
board	-5746
genie	-5747
▁anzu	-5748
▁inse	-5749
▁Relig	-5750
▁Those	-5751
▁aktiv	-5752
▁Second	-5753
imension	-5754
▁influen	-5755
▁mention	-5756
▁critical	-5757
▁erschein	-5758
▁straight	-5759
ckte	-5760
hang	-5761
▁doc	-5762
iling	-5763
werke	-5764
▁Priv	-5765
▁Monat	-5766
▁Today	-5767
▁Which	-5768
▁aufre	-5769
▁calcul	-5770
▁runter	-5771
▁automat	-5772
▁provide	-5773
▁smaller	-5774
▁treatment	-5775
abet	-5776
wers	-5777
▁Kons	-5778
▁wund	-5779
ctions	-5780
werfen	-5781
▁sleep	-5782
▁address	-5783
▁studies	-5784
▁geschehen	-5785
▁Amerikaner	-5786
▁organization	-5787
tex	-5788
▁Gem	-5789
▁veh	-5790
▁alte	-5791
▁stär	-5792
▁yeah	-5793
▁Stamm	-5794
▁beings	-5795
▁Frieden	-5796
▁version	-5797
▁including	-5798
▁architecture	-5799
ios	-5800
ius	-5801
was	-5802
aria	-5803
hyth	-5804
▁wes	-5805
▁clin	-5806
▁kaum	-5807
▁rund	-5808
▁truly	-5809
▁anywhere	-5810
▁unmöglich	-5811
licherweise	-5812
5,	-5813
ham	-5814
ehme	-5815
isms	-5816
▁MIT	-5817
▁zahl	-5818
iately	-5819
utzung	-5820
▁Times	-5821
▁angef	-5822
▁ignor	-5823
▁Bienen	-5824
▁Indian	-5825
▁actual	-5826
▁symbol	-5827
▁Netzwerk	-5828
▁military	-5829
▁patterns	-5830
▁Ergebnisse	-5831
▁increasing	-5832
dig	-5833
▁Sim	-5834
▁pen	-5835
▁tie	-5836
rasch	-5837
verse	-5838
iments	-5839
wenden	-5840
▁Somet	-5841
▁diagn	-5842
▁lines	-5843
▁Gefäng	-5844
▁analys	-5845
▁slight	-5846
▁seconds	-5847
▁aufgrund	-5848
▁painting	-5849
▁bestimmte	-5850
▁Entscheidung	-5851
▁conversation	-5852
ya	-5853
ulf	-5854
▁Kur	-5855
▁dog	-5856
▁prec	-5857
endent	-5858
▁Bezug	-5859
▁employ	-5860
▁please	-5861
▁sodass	-5862
▁college	-5863
▁Ressourcen	-5864
▁Regierungen	-5865
omm	-5866
uls	-5867
eles	-5868
pret	-5869
ücht	-5870
▁Zuf	-5871
▁bab	-5872
▁Berg	-5873
▁Phil	-5874
▁nerv	-5875
▁stars	-5876
▁throw	-5877
▁Landes	-5878
▁himself	-5879
▁erfahren	-5880
▁machines	-5881
▁entdecken	-5882
▁Wahrscheinlich	-5883
osh	-5884
▁Hü	-5885
▁Ok	-5886
dete	-5887
scht	-5888
▁Pak	-5889
▁erz	-5890
aging	-5891
äusch	-5892
▁Test	-5893
▁coun	-5894
▁page	-5895
▁sele	-5896
▁Prote	-5897
▁letzt	-5898
ualität	-5899
▁anymore	-5900
▁Flugzeug	-5901
▁programm	-5902
▁Auswirkungen	-5903
roph	-5904
▁Che	-5905
▁kil	-5906
itude	-5907
▁Ball	-5908
▁Mond	-5909
▁dunk	-5910
▁wann	-5911
▁wirk	-5912
ektive	-5913
ierter	-5914
▁check	-5915
▁danke	-5916
▁jungen	-5917
▁physics	-5918
org	-5919
▁Sä	-5920
▁lag	-5921
ildet	-5922
seits	-5923
▁neun	-5924
▁effort	-5925
▁skills	-5926
▁gefragt	-5927
▁riesige	-5928
▁entschieden	-5929
▁Nä	-5930
oint	-5931
ribe	-5932
▁Hall	-5933
folgen	-5934
▁hilft	-5935
▁messen	-5936
▁passen	-5937
▁greater	-5938
▁leisten	-5939
▁recognize	-5940
▁verbinden	-5941
▁verstanden	-5942
yle	-5943
ähig	-5944
▁unc	-5945
sprün	-5946
▁Höhe	-5947
zimmer	-5948
▁price	-5949
▁Himmel	-5950
▁Museum	-5951
▁rights	-5952
ingungen	-5953
▁dadurch	-5954
▁express	-5955
▁respond	-5956
▁written	-5957
▁Americans	-5958
fortunately	-5959
▁großartige	-5960
onie	-5961
▁Tal	-5962
▁nut	-5963
▁card	-5964
▁west	-5965
▁Chance	-5966
▁Formen	-5967
▁forest	-5968
▁Kollegen	-5969
▁einander	-5970
▁decisions	-5971
▁großartig	-5972
ara	-5973
aup	-5974
bre	-5975
play	-5976
▁las	-5977
emand	-5978
gener	-5979
ütter	-5980
▁Herr	-5981
▁lebt	-5982
▁rand	-5983
glicht	-5984
▁Brust	-5985
▁glass	-5986
▁läuft	-5987
▁quant	-5988
▁rechts	-5989
▁report	-5990
▁zeigte	-5991
▁Ordnung	-5992
▁biology	-5993
▁Verantwort	-5994
▁untersuchen	-5995
leb	-5996
▁tä	-5997
ilet	-5998
▁whe	-5999
▁Disk	-6000
▁High	-6001
▁code	-6002
▁Fotos	-6003
▁Sinne	-6004
▁board	-6005
▁genes	-6006
▁School	-6007
▁statist	-6008
▁specific	-6009
▁standard	-6010
▁übrigens	-6011
▁expensive	-6012
Es	-6013
iat	-6014
uted	-6015
wick	-6016
▁Ere	-6017
▁Wik	-6018
ahmen	-6019
riere	-6020
▁Heim	-6021
▁hält	-6022
assung	-6023
stelle	-6024
stoffe	-6025
▁Einer	-6026
▁Hände	-6027
▁sowohl	-6028
▁verste	-6029
▁weight	-6030
▁Glauben	-6031
▁Funktion	-6032
▁herausfinden	-6033
örp	-6034
buch	-6035
time	-6036
will	-6037
▁rep	-6038
agine	-6039
grupp	-6040
▁cold	-6041
▁desp	-6042
▁legs	-6043
▁zufä	-6044
▁Außer	-6045
▁Gespr	-6046
ierende	-6047
▁famous	-6048
▁service	-6049
▁gestellt	-6050
▁ermöglicht	-6051
▁normalerweise	-6052
zi	-6053
▁Gal	-6054
▁hop	-6055
örder	-6056
▁Arzt	-6057
▁Bang	-6058
▁Mont	-6059
tragen	-6060
▁hörte	-6061
▁Darwin	-6062
▁surger	-6063
zunehmen	-6064
▁clearly	-6065
▁earlier	-6066
▁zweiten	-6067
▁erzählte	-6068
▁fantastic	-6069
▁Architektur	-6070
▁Krankenhaus	-6071
ux	-6072
▁45	-6073
iles	-6074
▁Ame	-6075
throp	-6076
▁Port	-6077
ameras	-6078
▁retten	-6079
▁Systeme	-6080
▁entdeckt	-6081
▁production	-6082
same	-6083
acity	-6084
auber	-6085
▁math	-6086
▁magic	-6087
▁beauty	-6088
▁policy	-6089
▁robots	-6090
▁Another	-6091
▁Entdeck	-6092
▁contrib	-6093
▁Freiheit	-6094
▁außerhalb	-6095
▁geschaffen	-6096
▁throughout	-6097
▁Pf	-6098
▁hell	-6099
▁Kampf	-6100
▁Geburt	-6101
▁Jahres	-6102
▁mental	-6103
▁Methode	-6104
▁handelt	-6105
▁Wachstum	-6106
▁Erwachsen	-6107
▁listening	-6108
▁solutions	-6109
ährt	-6110
reche	-6111
▁vern	-6112
ieties	-6113
▁Fluss	-6114
▁drink	-6115
▁loved	-6116
▁walked	-6117
arbeiter	-6118
▁waiting	-6119
▁becoming	-6120
▁practice	-6121
▁Maschinen	-6122
▁diejenigen	-6123
9,	-6124
Hey	-6125
key	-6126
sum	-6127
arte	-6128
seit	-6129
▁Sep	-6130
▁fit	-6131
ournal	-6132
sweise	-6133
▁Damit	-6134
▁Regel	-6135
▁Traum	-6136
▁costs	-6137
▁north	-6138
▁taten	-6139
▁fallen	-6140
▁sammeln	-6141
▁befindet	-6142
▁Vergleich	-6143
mäß	-6144
mend	-6145
▁pan	-6146
gaben	-6147
itten	-6148
▁weap	-6149
▁Zivil	-6150
▁berüh	-6151
▁shark	-6152
erences	-6153
▁einzig	-6154
▁random	-6155
▁current	-6156
▁driving	-6157
▁globalen	-6158
▁therefore	-6159
▁interessante	-6160
ago	-6161
rif	-6162
▁Lö	-6163
▁div	-6164
▁hyd	-6165
▁sam	-6166
ained	-6167
▁shot	-6168
▁brand	-6169
▁catch	-6170
▁store	-6171
▁älter	-6172
▁kommun	-6173
▁police	-6174
▁square	-6175
▁temper	-6176
▁Ingenie	-6177
▁healthy	-6178
▁willing	-6179
▁argument	-6180
▁familiar	-6181
ala	-6182
isco	-6183
lose	-6184
repr	-6185
vard	-6186
▁Bus	-6187
▁exh	-6188
reten	-6189
▁cele	-6190
▁crow	-6191
▁harm	-6192
▁Bühne	-6193
▁spect	-6194
unächst	-6195
▁abstra	-6196
▁greatest	-6197
▁intelligent	-6198
bü	-6199
ceed	-6200
▁Aud	-6201
▁lad	-6202
iding	-6203
▁Erst	-6204
▁Noch	-6205
▁höch	-6206
▁ille	-6207
änomen	-6208
barkeit	-6209
▁Beginn	-6210
▁Geheim	-6211
▁plastic	-6212
Nein	-6213
trag	-6214
önen	-6215
▁sus	-6216
anter	-6217
▁König	-6218
▁weren	-6219
▁Comput	-6220
▁divers	-6221
▁fascin	-6222
▁Englisch	-6223
▁einzigen	-6224
▁herunter	-6225
▁September	-6226
▁irgendein	-6227
30	-6228
rifft	-6229
▁Inse	-6230
▁Farbe	-6231
▁Verfü	-6232
▁gradu	-6233
▁range	-6234
mitteln	-6235
teilung	-6236
▁Einzel	-6237
▁Nummer	-6238
▁schützen	-6239
▁dangerous	-6240
▁direction	-6241
▁intelligence	-6242
▁environmental	-6243
pfe	-6244
▁Gh	-6245
itat	-6246
aries	-6247
lands	-6248
schirm	-6249
▁Liebl	-6250
▁floor	-6251
▁reich	-6252
ständig	-6253
▁spielt	-6254
▁Telefon	-6255
▁strange	-6256
▁betrachtet	-6257
▁amerikanischen	-6258
2,	-6259
Ja	-6260
attle	-6261
erven	-6262
etzte	-6263
orien	-6264
▁Rand	-6265
▁Wald	-6266
nungen	-6267
▁mächt	-6268
▁bisher	-6269
▁profit	-6270
▁spirit	-6271
▁warten	-6272
▁comfort	-6273
▁concern	-6274
▁respect	-6275
▁website	-6276
▁welcher	-6277
▁invented	-6278
▁Interesse	-6279
▁wundersch	-6280
▁performance	-6281
▁institutions	-6282
▁unterstützen	-6283
ads	-6284
amb	-6285
▁Ak	-6286
rees	-6287
äuser	-6288
▁Gold	-6289
▁Komp	-6290
▁Name	-6291
▁antw	-6292
aurant	-6293
gesetzt	-6294
▁Drogen	-6295
▁Gründe	-6296
▁Intell	-6297
▁determ	-6298
▁selben	-6299
▁Nahrung	-6300
▁freedom	-6301
ieß	-6302
▁vo	-6303
lant	-6304
ctive	-6305
ießen	-6306
▁lief	-6307
▁rise	-6308
▁forth	-6309
imately	-6310
▁German	-6311
▁Jungen	-6312
▁Artikel	-6313
▁Harvard	-6314
▁Partner	-6315
▁geschah	-6316
▁various	-6317
▁getroffen	-6318
7,	-6319
aust	-6320
osen	-6321
▁Nor	-6322
▁dau	-6323
▁grü	-6324
▁jump	-6325
ätzlich	-6326
▁Finger	-6327
▁income	-6328
▁Western	-6329
▁Californ	-6330
▁teaching	-6331
▁herstellen	-6332
iell	-6333
▁fac	-6334
▁Fakt	-6335
atives	-6336
passen	-6337
▁types	-6338
▁babies	-6339
▁bodies	-6340
▁dritte	-6341
▁improv	-6342
▁services	-6343
▁Organisation	-6344
ostet	-6345
▁zero	-6346
frikan	-6347
▁ahead	-6348
▁encou	-6349
▁final	-6350
▁strug	-6351
▁worry	-6352
▁Lernen	-6353
▁gewiss	-6354
▁wealth	-6355
▁Imagine	-6356
▁doctors	-6357
▁Pakistan	-6358
▁verrückt	-6359
imensional	-6360
▁öffentlichen	-6361
8,	-6362
osc	-6363
▁Ru	-6364
aste	-6365
ffic	-6366
▁Dan	-6367
▁Fen	-6368
▁Two	-6369
▁jud	-6370
essor	-6371
ossen	-6372
platz	-6373
uchst	-6374
▁Amaz	-6375
▁Cong	-6376
▁Hirn	-6377
▁blog	-6378
▁früh	-6379
▁rule	-6380
▁George	-6381
▁ebenso	-6382
▁secret	-6383
▁meeting	-6384
▁mehrere	-6385
▁Zeitpunkt	-6386
War	-6387
kam	-6388
urm	-6389
hnen	-6390
▁Ton	-6391
▁hart	-6392
ending	-6393
▁legal	-6394
▁Ereign	-6395
▁Klimaw	-6396
▁celebr	-6397
▁erwarten	-6398
▁following	-6399
▁Behandlung	-6400
▁grundlegen	-6401
ikt	-6402
mon	-6403
▁GP	-6404
▁km	-6405
alle	-6406
▁Bis	-6407
▁Eth	-6408
▁Jul	-6409
redit	-6410
▁Grad	-6411
▁Miss	-6412
▁Norm	-6413
▁uses	-6414
eitens	-6415
▁Instr	-6416
▁Tisch	-6417
schiede	-6418
▁career	-6419
▁levels	-6420
▁method	-6421
▁remind	-6422
▁values	-6423
▁Charles	-6424
▁genetic	-6425
▁bestehen	-6426
▁entweder	-6427
▁instance	-6428
▁effective	-6429
▁Kol	-6430
▁fil	-6431
▁ran	-6432
▁win	-6433
phone	-6434
▁Stunde	-6435
▁flying	-6436
▁useful	-6437
ervation	-6438
▁Einkommen	-6439
amt	-6440
ray	-6441
brit	-6442
itiv	-6443
▁web	-6444
alley	-6445
▁Denk	-6446
▁Schn	-6447
▁telev	-6448
reprene	-6449
▁decide	-6450
gefunden	-6451
▁Nigeria	-6452
▁Lösungen	-6453
▁dasselbe	-6454
▁schicken	-6455
▁verkaufen	-6456
ellschaften	-6457
▁Beziehungen	-6458
uzz	-6459
▁Mär	-6460
round	-6461
▁tiss	-6462
▁decade	-6463
▁explor	-6464
▁install	-6465
▁spricht	-6466
▁Manchmal	-6467
▁citizens	-6468
▁humanity	-6469
▁immediately	-6470
kur	-6471
alog	-6472
▁cru	-6473
▁inj	-6474
▁ord	-6475
anced	-6476
masch	-6477
▁Your	-6478
▁laut	-6479
▁Schle	-6480
▁apply	-6481
▁desto	-6482
▁relev	-6483
gebracht	-6484
▁Komplex	-6485
▁describ	-6486
▁Anderson	-6487
▁erinnere	-6488
▁heutigen	-6489
▁California	-6490
▁Verständnis	-6491
▁.	-6492
ael	-6493
apes	-6494
iens	-6495
▁Sub	-6496
angel	-6497
dings	-6498
ients	-6499
▁laws	-6500
achtet	-6501
▁Think	-6502
▁Wesen	-6503
▁aufzu	-6504
ulieren	-6505
▁Kamera	-6506
▁Punkte	-6507
▁nahmen	-6508
▁although	-6509
▁bedeuten	-6510
▁erfunden	-6511
▁ebenfalls	-6512
▁remarkable	-6513
▁Jahrhunderts	-6514
2.	-6515
ürf	-6516
▁Co	-6517
esth	-6518
nehm	-6519
▁Big	-6520
ypoth	-6521
▁Text	-6522
▁fällt	-6523
▁radio	-6524
▁raise	-6525
▁trade	-6526
▁Teilen	-6527
▁ehrlich	-6528
▁infrast	-6529
▁popular	-6530
▁wunderv	-6531
▁Vorstell	-6532
▁Schönheit	-6533
▁governments	-6534
▁Veränderungen	-6535
abe	-6536
zul	-6537
▁Sl	-6538
ript	-6539
webe	-6540
▁Sil	-6541
▁NASA	-6542
▁Wohn	-6543
amente	-6544
ildern	-6545
▁Jedes	-6546
▁concl	-6547
▁match	-6548
▁slide	-6549
▁Zeiten	-6550
▁behaup	-6551
▁elektr	-6552
▁expand	-6553
▁Gehirns	-6554
▁Individ	-6555
▁electron	-6556
▁Erfahrungen	-6557
▁Institution	-6558
▁Bo	-6559
cies	-6560
rzte	-6561
▁Neu	-6562
▁deb	-6563
▁iPh	-6564
▁Sold	-6565
▁Vier	-6566
▁Wege	-6567
anning	-6568
▁fühlte	-6569
▁saving	-6570
chnologie	-6571
▁condition	-6572
1,	-6573
esis	-6574
endes	-6575
▁Band	-6576
▁Angel	-6577
▁guter	-6578
▁Finanz	-6579
▁Worten	-6580
▁forget	-6581
▁supply	-6582
▁voraus	-6583
▁gedacht	-6584
▁possibly	-6585
▁terrible	-6586
▁einfachen	-6587
▁connection	-6588
vey	-6589
öse	-6590
ancy	-6591
iant	-6592
iete	-6593
▁Pil	-6594
▁unf	-6595
aptop	-6596
iated	-6597
▁Life	-6598
▁fuel	-6599
▁isol	-6600
▁gutes	-6601
sichtig	-6602
▁Westen	-6603
▁Eigenschaften	-6604
hem	-6605
otel	-6606
▁End	-6607
▁Kir	-6608
▁Mut	-6609
stück	-6610
wärts	-6611
▁gift	-6612
▁jene	-6613
▁uner	-6614
▁aware	-6615
ssystem	-6616
▁commit	-6617
▁honest	-6618
▁selten	-6619
▁senten	-6620
▁trouble	-6621
▁jemandem	-6622
▁politics	-6623
▁engineering	-6624
▁durchschnitt	-6625
rt	-6626
uhl	-6627
anne	-6628
▁Arg	-6629
▁bud	-6630
ustom	-6631
▁Drit	-6632
▁Prot	-6633
▁foss	-6634
▁hair	-6635
▁hole	-6636
▁Unser	-6637
▁liber	-6638
▁triff	-6639
inosaur	-6640
▁wenige	-6641
▁Position	-6642
▁slightly	-6643
▁Francisco	-6644
▁Gefängnis	-6645
frastruktur	-6646
▁television	-6647
▁unglaubliche	-6648
RI	-6649
ih	-6650
ibr	-6651
irur	-6652
▁sad	-6653
gency	-6654
stütz	-6655
ufact	-6656
▁Auge	-6657
▁drop	-6658
selben	-6659
▁Liste	-6660
▁agric	-6661
▁unver	-6662
▁accept	-6663
▁summer	-6664
▁decades	-6665
▁erleben	-6666
▁original	-6667
▁understood	-6668
▁üb	-6669
ulen	-6670
▁imm	-6671
▁wün	-6672
▁Junge	-6673
▁dauer	-6674
▁erfor	-6675
▁Polize	-6676
▁mobile	-6677
▁directly	-6678
MS	-6679
aker	-6680
reib	-6681
wise	-6682
arter	-6683
bewer	-6684
holen	-6685
▁Mitt	-6686
▁Wass	-6687
▁hall	-6688
▁Haben	-6689
▁metap	-6690
▁south	-6691
▁Ahnung	-6692
▁fangen	-6693
▁sobald	-6694
▁atmosph	-6695
▁cultural	-6696
▁financial	-6697
▁vergleich	-6698
▁neighborhood	-6699
How	-6700
val	-6701
aign	-6702
ikas	-6703
lapp	-6704
räge	-6705
▁Sam	-6706
▁hom	-6707
Warum	-6708
▁Gang	-6709
▁YouT	-6710
▁mitt	-6711
▁Ident	-6712
▁assoc	-6713
geführt	-6714
▁Farben	-6715
▁dramat	-6716
▁states	-6717
▁struct	-6718
▁vorbei	-6719
▁survive	-6720
▁Nahrungs	-6721
▁Produkte	-6722
▁capacity	-6723
▁societies	-6724
▁überleben	-6725
▁industrial	-6726
ammt	-6727
▁Bib	-6728
▁Mat	-6729
▁Mir	-6730
▁dür	-6731
sehen	-6732
▁male	-6733
▁Plast	-6734
britann	-6735
▁destro	-6736
▁forces	-6737
▁lernte	-6738
▁temperature	-6739
Er	-6740
ärm	-6741
▁99	-6742
erin	-6743
▁Sal	-6744
▁mid	-6745
essed	-6746
ringt	-6747
▁Glob	-6748
▁Kurz	-6749
▁Körp	-6750
▁base	-6751
▁paid	-6752
▁James	-6753
▁komme	-6754
▁Freude	-6755
▁Schutz	-6756
▁commer	-6757
▁frühen	-6758
▁shared	-6759
▁target	-6760
▁Erkennt	-6761
▁YouTube	-6762
▁eigenes	-6763
▁enormous	-6764
▁Industrie	-6765
▁Schlüssel	-6766
▁Verfügung	-6767
▁behandeln	-6768
▁schlechte	-6769
▁wunderbar	-6770
▁konzentrieren	-6771
It	-6772
maß	-6773
pack	-6774
▁Hom	-6775
▁fro	-6776
omant	-6777
▁Great	-6778
▁Steve	-6779
▁hinzu	-6780
▁anyway	-6781
▁helped	-6782
▁Schrift	-6783
▁prevent	-6784
▁angefangen	-6785
vit	-6786
▁bat	-6787
folge	-6788
frika	-6789
icles	-6790
odell	-6791
▁From	-6792
▁Many	-6793
▁dank	-6794
▁lust	-6795
▁vict	-6796
▁Abend	-6797
▁Physik	-6798
▁artist	-6799
▁seines	-6800
▁trifft	-6801
▁unique	-6802
▁öffnen	-6803
minister	-6804
▁kulture	-6805
▁diseases	-6806
▁transpar	-6807
▁Antworten	-6808
▁Intelligen	-6809
▁außergewöhn	-6810
Te	-6811
hi	-6812
ino	-6813
▁Zuh	-6814
ilien	-6815
örung	-6816
▁gebe	-6817
▁Gehir	-6818
▁Werte	-6819
▁chair	-6820
▁manip	-6821
▁Sommer	-6822
▁Spitze	-6823
▁mostly	-6824
▁surgery	-6825
▁tremend	-6826
ternehmer	-6827
▁Biologie	-6828
▁gegangen	-6829
▁größeren	-6830
▁unabhäng	-6831
▁creativity	-6832
▁verbringen	-6833
▁Materialien	-6834
▁Go	-6835
ding	-6836
tech	-6837
üsse	-6838
▁Bein	-6839
▁Post	-6840
▁Again	-6841
▁Bäume	-6842
▁whose	-6843
▁Amazon	-6844
▁Manche	-6845
▁Schiff	-6846
▁Street	-6847
▁Tieren	-6848
▁Videos	-6849
▁closer	-6850
▁oxygen	-6851
ographic	-6852
▁Statist	-6853
▁answers	-6854
▁central	-6855
▁globale	-6856
▁Projekte	-6857
▁negative	-6858
▁published	-6859
▁challenges	-6860
20	-6861
tr	-6862
elf	-6863
lav	-6864
iest	-6865
itär	-6866
izes	-6867
▁Dis	-6868
▁Dre	-6869
▁Tex	-6870
▁vul	-6871
eting	-6872
ichts	-6873
▁Mill	-6874
▁boys	-6875
▁krie	-6876
▁worst	-6877
▁zeich	-6878
itionen	-6879
▁Region	-6880
▁Schwar	-6881
▁Waffen	-6882
▁double	-6883
▁effekt	-6884
▁intens	-6885
▁spreche	-6886
▁Freunden	-6887
▁controll	-6888
▁networks	-6889
▁Sauerstoff	-6890
▁colleagues	-6891
▁entreprene	-6892
▁Leidenschaft	-6893
▁Verantwortung	-6894
lös	-6895
▁ve	-6896
ners	-6897
oßen	-6898
weil	-6899
▁Tom	-6900
▁aid	-6901
fühle	-6902
▁heav	-6903
▁hört	-6904
▁tens	-6905
treten	-6906
▁Kreis	-6907
▁below	-6908
▁entsp	-6909
▁funny	-6910
isierte	-6911
▁Erstens	-6912
▁Fenster	-6913
▁explore	-6914
▁purpose	-6915
▁existiert	-6916
▁aufgenommen	-6917
▁organizations	-6918
"-	-6919
nam	-6920
spe	-6921
▁ök	-6922
such	-6923
uing	-6924
verb	-6925
▁Tor	-6926
▁fat	-6927
▁hus	-6928
light	-6929
unsch	-6930
▁Arme	-6931
▁Nähe	-6932
▁absch	-6933
▁echte	-6934
haltung	-6935
▁Bedürf	-6936
▁invent	-6937
▁played	-6938
▁streng	-6939
▁Zustand	-6940
▁effects	-6941
▁erzeugt	-6942
▁noticed	-6943
▁ursprün	-6944
▁algorith	-6945
▁begonnen	-6946
▁kontrollieren	-6947
▁infrastructure	-6948
gas	-6949
ims	-6950
pre	-6951
▁Hig	-6952
▁Alex	-6953
▁Kore	-6954
ochter	-6955
▁Zelle	-6956
▁print	-6957
▁Dienst	-6958
▁Muslim	-6959
▁beantw	-6960
▁causes	-6961
▁corner	-6962
▁einsch	-6963
▁Männern	-6964
▁mountain	-6965
▁profound	-6966
▁speaking	-6967
▁herzustellen	-6968
erc	-6969
▁23	-6970
▁Mö	-6971
affe	-6972
uber	-6973
▁194	-6974
▁Bru	-6975
▁Get	-6976
▁zug	-6977
aling	-6978
ergie	-6979
fraid	-6980
äumen	-6981
▁erhö	-6982
▁heat	-6983
▁loss	-6984
▁smell	-6985
▁brilli	-6986
▁Ausdruck	-6987
▁produced	-6988
▁Gelegenheit	-6989
▁Infrastruktur	-6990
▁75	-6991
deut	-6992
inct	-6993
term	-6994
▁Etw	-6995
▁bio	-6996
▁mix	-6997
ündet	-6998
▁sick	-6999
▁tele	-7000
eitern	-7001
▁Insel	-7002
▁offic	-7003
▁häufig	-7004
▁wählen	-7005
▁Michael	-7006
▁Schluss	-7007
▁entlang	-7008
▁Designer	-7009
▁nachhalt	-7010
▁consequen	-7011
▁geschafft	-7012
▁philosoph	-7013
▁Unterstütz	-7014
▁atmosphere	-7015
▁profession	-7016
▁Großbritann	-7017
▁Kreativität	-7018
▁erstaunlich	-7019
▁experiments	-7020
pft	-7021
urb	-7022
▁Jobs	-7023
▁plat	-7024
orgung	-7025
▁Titel	-7026
▁frame	-7027
▁shoot	-7028
▁twice	-7029
▁Herzen	-7030
▁active	-7031
▁afraid	-7032
▁chines	-7033
▁frustr	-7034
▁iPhone	-7035
▁Journal	-7036
▁größere	-7037
▁workers	-7038
▁Führungs	-7039
▁Interess	-7040
▁pressure	-7041
▁programs	-7042
▁Werkzeuge	-7043
▁Überleben	-7044
bet	-7045
bin	-7046
rag	-7047
zil	-7048
▁ko	-7049
mung	-7050
stes	-7051
▁Mos	-7052
stadt	-7053
▁Chic	-7054
orthin	-7055
▁Osten	-7056
▁Schwe	-7057
▁birds	-7058
▁dance	-7059
ichtbar	-7060
▁akzept	-7061
▁speech	-7062
mosphäre	-7063
▁evolved	-7064
▁genutzt	-7065
▁journal	-7066
▁notwend	-7067
▁surround	-7068
▁entstehen	-7069
▁institution	-7070
do	-7071
ogel	-7072
▁His	-7073
▁Pop	-7074
▁Rep	-7075
▁Wid	-7076
raten	-7077
rench	-7078
▁coff	-7079
▁ließ	-7080
▁Colle	-7081
ception	-7082
▁10,000	-7083
▁Nehmen	-7084
▁applic	-7085
ognitive	-7086
▁degrees	-7087
▁manufact	-7088
▁riesigen	-7089
Be	-7090
dy	-7091
col	-7092
orb	-7093
▁2.	-7094
▁Bon	-7095
▁Ext	-7096
▁tax	-7097
▁Stan	-7098
▁fehl	-7099
▁koll	-7100
▁viol	-7101
etzten	-7102
▁parad	-7103
ktionen	-7104
▁bought	-7105
▁highly	-7106
▁Tochter	-7107
▁dorthin	-7108
▁schlimm	-7109
▁brauchte	-7110
▁relationships	-7111
gin	-7112
odes	-7113
▁600	-7114
artig	-7115
azine	-7116
mente	-7117
rical	-7118
utsch	-7119
▁Blog	-7120
▁Lang	-7121
▁Wett	-7122
▁lack	-7123
▁poet	-7124
fassen	-7125
▁dying	-7126
▁indep	-7127
▁schaut	-7128
▁markets	-7129
▁streets	-7130
▁Karriere	-7131
ida	-7132
rot	-7133
aced	-7134
▁kor	-7135
▁sou	-7136
▁tri	-7137
anging	-7138
blemen	-7139
imente	-7140
schutz	-7141
▁synth	-7142
▁Thanks	-7143
▁resist	-7144
▁Gefühle	-7145
▁stopped	-7146
▁erlauben	-7147
abt	-7148
ete	-7149
▁Hum	-7150
▁äuß	-7151
▁gilt	-7152
▁Suche	-7153
▁Wikip	-7154
▁nehme	-7155
▁oppos	-7156
▁Center	-7157
▁Meeres	-7158
▁Norden	-7159
▁custom	-7160
▁langen	-7161
▁myster	-7162
▁Knochen	-7163
▁Materie	-7164
▁kämpfen	-7165
▁campaign	-7166
▁Medikamente	-7167
▁communicate	-7168
▁differences	-7169
▁ermöglichen	-7170
Why	-7171
üben	-7172
onent	-7173
▁Dort	-7174
▁Holz	-7175
▁Loch	-7176
▁ausz	-7177
▁fühlt	-7178
▁kenne	-7179
▁rough	-7180
▁shock	-7181
▁sogen	-7182
istisch	-7183
▁Brazil	-7184
▁bemerk	-7185
▁flight	-7186
zeichnen	-7187
▁Chicago	-7188
▁Instead	-7189
▁choices	-7190
▁seltsam	-7191
▁einfacher	-7192
▁complexity	-7193
▁verantwort	-7194
now	-7195
tes	-7196
▁od	-7197
eden	-7198
▁Con	-7199
ampag	-7200
entle	-7201
oston	-7202
▁King	-7203
▁bomb	-7204
▁erne	-7205
▁nütz	-7206
▁wire	-7207
ennung	-7208
schuld	-7209
▁gross	-7210
▁Ansatz	-7211
▁Atlant	-7212
▁eating	-7213
▁switch	-7214
▁vertra	-7215
ollywood	-7216
▁Klassen	-7217
▁endlich	-7218
▁improve	-7219
▁Phänomen	-7220
▁Vielfalt	-7221
▁studying	-7222
▁produziert	-7223
▁beeinflusst	-7224
▁differently	-7225
üst	-7226
ason	-7227
leun	-7228
wohn	-7229
▁Frü	-7230
▁GPS	-7231
bruch	-7232
heben	-7233
markt	-7234
mögen	-7235
▁Hund	-7236
▁Iraq	-7237
▁bees	-7238
▁hielt	-7239
▁Nerven	-7240
▁Wunder	-7241
▁genome	-7242
▁reduce	-7243
▁satell	-7244
▁achieve	-7245
▁creates	-7246
▁handeln	-7247
▁Neuronen	-7248
geschichte	-7249
▁diversity	-7250
▁psycholog	-7251
▁Temperatur	-7252
▁biological	-7253
▁conference	-7254
▁surprising	-7255
▁Geschwindigkeit	-7256
Ver	-7257
größ	-7258
ähle	-7259
alien	-7260
▁Eins	-7261
gebaut	-7262
▁Typen	-7263
▁fühle	-7264
▁legen	-7265
▁Klasse	-7266
▁gather	-7267
▁lights	-7268
▁seemed	-7269
▁weiterhin	-7270
▁Komplexität	-7271
▁experiences	-7272
▁sustainable	-7273
▁wichtigsten	-7274
4,	-7275
Un	-7276
uum	-7277
load	-7278
ließt	-7279
▁Glas	-7280
▁abge	-7281
▁kürz	-7282
lieben	-7283
▁photo	-7284
▁female	-7285
▁magnet	-7286
▁window	-7287
▁afrikan	-7288
▁element	-7289
▁helping	-7290
▁bringing	-7291
▁molecules	-7292
▁reagieren	-7293
▁significant	-7294
▁Durchschnitt	-7295
▁communication	-7296
Wenn	-7297
thal	-7298
uert	-7299
▁Pan	-7300
▁Sun	-7301
▁Wal	-7302
▁bub	-7303
▁nöt	-7304
istry	-7305
▁Anst	-7306
▁flex	-7307
▁habt	-7308
▁krit	-7309
imeter	-7310
▁Todes	-7311
▁basis	-7312
▁könnt	-7313
▁Middle	-7314
▁breast	-7315
▁ändert	-7316
▁devices	-7317
▁missing	-7318
▁entsteht	-7319
▁Wikipedia	-7320
▁entschied	-7321
▁landscape	-7322
▁beeinflussen	-7323
▁consciousness	-7324
na	-7325
▁2,	-7326
▁Ah	-7327
bank	-7328
berg	-7329
mmer	-7330
rect	-7331
stag	-7332
▁dom	-7333
▁pig	-7334
▁frag	-7335
▁gele	-7336
▁gene	-7337
▁Beruf	-7338
▁Micro	-7339
▁Boston	-7340
▁Erzähl	-7341
▁Result	-7342
▁broken	-7343
ierenden	-7344
kosystem	-7345
▁Unterschiede	-7346
▁Verbindungen	-7347
▁Zusammenhang	-7348
arr	-7349
ico	-7350
▁Kä	-7351
cell	-7352
glie	-7353
used	-7354
▁Kop	-7355
fälle	-7356
olden	-7357
setzt	-7358
▁prep	-7359
▁1,000	-7360
▁Paris	-7361
▁trick	-7362
ungspro	-7363
▁Massen	-7364
▁Robert	-7365
▁easily	-7366
▁kostet	-7367
▁Begriff	-7368
▁Version	-7369
industrie	-7370
▁spending	-7371
▁stellten	-7372
▁Botschaft	-7373
▁Fortschritt	-7374
▁Entwicklungsl	-7375
oom	-7376
Okay	-7377
chem	-7378
lder	-7379
▁Lat	-7380
▁tom	-7381
ekten	-7382
▁Ganz	-7383
▁Kein	-7384
▁Mach	-7385
▁Mart	-7386
▁More	-7387
▁Over	-7388
▁Virus	-7389
▁seien	-7390
▁cooper	-7391
▁gotten	-7392
▁spaces	-7393
▁symmet	-7394
▁Ameisen	-7395
▁Werkzeug	-7396
▁verkauft	-7397
erspektive	-7398
▁Geschäfts	-7399
dimensional	-7400
▁Kommunikation	-7401
Le	-7402
det	-7403
▁eg	-7404
▁ut	-7405
olds	-7406
▁20.	-7407
▁Air	-7408
▁Jan	-7409
▁Les	-7410
▁Pre	-7411
▁Wol	-7412
akten	-7413
haben	-7414
quenz	-7415
▁gros	-7416
▁teen	-7417
istenz	-7418
izität	-7419
riffen	-7420
▁Opfer	-7421
▁agree	-7422
▁analy	-7423
▁bread	-7424
▁fully	-7425
▁initi	-7426
führung	-7427
▁Risiko	-7428
▁Fernseh	-7429
▁artists	-7430
▁daughter	-7431
▁Präsident	-7432
▁scientist	-7433
▁background	-7434
▁commercial	-7435
▁Gesellschaften	-7436
cel	-7437
igur	-7438
▁Las	-7439
▁sal	-7440
icket	-7441
water	-7442
▁Trad	-7443
▁rede	-7444
▁vast	-7445
aining	-7446
▁motor	-7447
▁Karten	-7448
▁Kohlen	-7449
▁batter	-7450
▁begeist	-7451
▁hearing	-7452
▁gewonnen	-7453
▁veränder	-7454
▁bemerkens	-7455
▁ecosystem	-7456
▁tremendous	-7457
▁politischen	-7458
▁opportunities	-7459
wahr	-7460
▁Jede	-7461
▁Müll	-7462
▁aufw	-7463
▁none	-7464
▁race	-7465
ording	-7466
umente	-7467
▁Green	-7468
▁assum	-7469
▁auszu	-7470
mutlich	-7471
stronom	-7472
▁passed	-7473
▁presen	-7474
▁therap	-7475
▁vulner	-7476
ulations	-7477
▁College	-7478
▁members	-7479
▁strength	-7480
▁designers	-7481
▁interpret	-7482
▁politische	-7483
▁Wirtschafts	-7484
dr	-7485
▁,	-7486
ays	-7487
▁Kö	-7488
urop	-7489
▁saß	-7490
frage	-7491
hilfe	-7492
laden	-7493
pping	-7494
▁Good	-7495
▁disk	-7496
brauch	-7497
wohner	-7498
▁Higgs	-7499
▁visit	-7500
auschen	-7501
▁erhält	-7502
▁Kapital	-7503
▁Zentrum	-7504
▁ancient	-7505
▁farmers	-7506
▁letztes	-7507
▁efficient	-7508
▁responsibility	-7509
angt	-7510
ober	-7511
▁Pot	-7512
▁Zur	-7513
▁fle	-7514
▁ren	-7515
▁saf	-7516
etwas	-7517
▁Satz	-7518
führer	-7519
▁feels	-7520
brechen	-7521
▁Altern	-7522
▁Schlag	-7523
▁origin	-7524
▁verfüg	-7525
▁Einsatz	-7526
▁focused	-7527
▁religion	-7528
▁Kilometer	-7529
▁verbreitet	-7530
▁Zusammenarbeit	-7531
1.	-7532
500	-7533
Sie	-7534
izen	-7535
rupt	-7536
ührt	-7537
▁jün	-7538
▁san	-7539
impan	-7540
mmern	-7541
right	-7542
▁Feld	-7543
▁darf	-7544
▁rare	-7545
artige	-7546
stände	-7547
▁rapid	-7548
bedingt	-7549
ivalent	-7550
klärung	-7551
▁bedeut	-7552
▁buchst	-7553
ationale	-7554
▁Plastik	-7555
▁dagegen	-7556
▁forever	-7557
▁Aufgaben	-7558
▁behandelt	-7559
▁Atmosphäre	-7560
▁Unterstützung	-7561
die	-7562
pfl	-7563
emen	-7564
kung	-7565
▁wis	-7566
ratic	-7567
rauch	-7568
▁Golf	-7569
▁Proz	-7570
▁Tanz	-7571
▁hing	-7572
▁ship	-7573
▁vari	-7574
estens	-7575
gramme	-7576
▁Zusch	-7577
▁davor	-7578
▁engage	-7579
▁ganzes	-7580
isierten	-7581
▁Kontakt	-7582
▁Sekunde	-7583
▁Städten	-7584
▁Insekten	-7585
▁Fernsehen	-7586
▁verursacht	-7587
▁übertragen	-7588
omas	-7589
▁Gar	-7590
frist	-7591
▁Fein	-7592
▁hero	-7593
▁stim	-7594
uments	-7595
▁enter	-7596
▁pleas	-7597
ography	-7598
▁Kunden	-7599
▁klingt	-7600
▁verein	-7601
▁yellow	-7602
▁Niemand	-7603
▁extreme	-7604
▁Schimpan	-7605
▁betrifft	-7606
▁metaphor	-7607
▁weiteres	-7608
▁Professor	-7609
▁erstellen	-7610
▁Universums	-7611
▁Großbritannien	-7612
tle	-7613
eler	-7614
ieso	-7615
teln	-7616
schte	-7617
▁Eind	-7618
others	-7619
▁gaben	-7620
▁spiel	-7621
mission	-7622
▁knowing	-7623
▁mission	-7624
▁perfekt	-7625
▁recover	-7626
▁schafft	-7627
▁benötigen	-7628
▁Intelligenz	-7629
hre	-7630
urf	-7631
zif	-7632
▁27	-7633
▁sü	-7634
▁Spr	-7635
▁Stär	-7636
▁eure	-7637
▁fash	-7638
▁schm	-7639
formen	-7640
izient	-7641
▁Babys	-7642
▁Schla	-7643
▁cheap	-7644
▁dahin	-7645
zeichen	-7646
zubauen	-7647
▁Sterne	-7648
▁desert	-7649
▁fairly	-7650
▁gentle	-7651
▁sexual	-7652
zwischen	-7653
▁Diskuss	-7654
▁Schwier	-7655
▁Spielen	-7656
▁Soldaten	-7657
▁dieselbe	-7658
▁überzeugt	-7659
▁Hintergrund	-7660
▁beschreiben	-7661
▁imagination	-7662
za	-7663
edy	-7664
kop	-7665
opt	-7666
▁CE	-7667
inde	-7668
▁250	-7669
▁Jer	-7670
andid	-7671
krebs	-7672
print	-7673
ugier	-7674
▁Abst	-7675
▁bloß	-7676
▁join	-7677
▁mort	-7678
▁zent	-7679
person	-7680
usagen	-7681
otograf	-7682
▁Online	-7683
▁Rücken	-7684
▁bitten	-7685
▁leiden	-7686
▁Actually	-7687
▁addition	-7688
▁opposite	-7689
▁investieren	-7690
▁possibility	-7691
An	-7692
co	-7693
ias	-7694
▁ep	-7695
king	-7696
obel	-7697
orgt	-7698
rian	-7699
stud	-7700
antas	-7701
based	-7702
▁Seit	-7703
▁Szen	-7704
antage	-7705
▁Vogel	-7706
▁adapt	-7707
▁digit	-7708
▁sitzt	-7709
▁sowie	-7710
▁weird	-7711
▁wirst	-7712
zusehen	-7713
änglich	-7714
▁Spiele	-7715
▁Wunsch	-7716
▁aspect	-7717
▁signal	-7718
▁British	-7719
▁failure	-7720
▁moments	-7721
▁sharing	-7722
▁Religion	-7723
▁inspired	-7724
▁wiederum	-7725
ungssystem	-7726
▁unbedingt	-7727
▁wunderschön	-7728
▁Landwirtschaft	-7729
▁herausgefunden	-7730
Sh	-7731
bu	-7732
len	-7733
ota	-7734
lymp	-7735
pted	-7736
uden	-7737
ügel	-7738
▁hau	-7739
house	-7740
krieg	-7741
usive	-7742
▁lucky	-7743
▁mouth	-7744
▁Fällen	-7745
▁Valley	-7746
▁coffee	-7747
entlicht	-7748
istische	-7749
▁Objekte	-7750
▁rechten	-7751
▁außerdem	-7752
▁identity	-7753
▁Lieblings	-7754
▁Untersuch	-7755
▁particles	-7756
▁religious	-7757
▁erforschen	-7758
▁phenomenon	-7759
▁vollkommen	-7760
▁überzeugen	-7761
▁Bedingungen	-7762
▁Klimawandel	-7763
▁Organisationen	-7764
oe	-7765
ola	-7766
▁Vö	-7767
gypt	-7768
leid	-7769
spro	-7770
üren	-7771
▁amb	-7772
losen	-7773
▁Sche	-7774
▁erfü	-7775
▁host	-7776
▁note	-7777
▁Jugend	-7778
▁Wandel	-7779
▁demand	-7780
▁lautet	-7781
▁notion	-7782
▁erklärt	-7783
▁umgehen	-7784
▁accident	-7785
▁benötigt	-7786
▁Institute	-7787
▁creatures	-7788
▁sozusagen	-7789
anst	-7790
ears	-7791
reci	-7792
▁Cam	-7793
ungsf	-7794
ätsel	-7795
▁Fach	-7796
▁Gest	-7797
▁Verk	-7798
▁spot	-7799
erecht	-7800
▁avoid	-7801
▁Inform	-7802
▁drehen	-7803
▁nearly	-7804
▁selber	-7805
▁tissue	-7806
▁steigen	-7807
ification	-7808
▁Gemeinde	-7809
▁benefits	-7810
▁Konferenz	-7811
▁verdienen	-7812
▁Ausbildung	-7813
▁beschäftigt	-7814
▁competition	-7815
6,	-7816
8.	-7817
di	-7818
sa	-7819
itzt	-7820
wahl	-7821
▁Lab	-7822
▁Adam	-7823
▁Brot	-7824
▁anti	-7825
▁beis	-7826
▁jung	-7827
▁plus	-7828
▁repe	-7829
▁Klima	-7830
▁Obama	-7831
▁names	-7832
▁party	-7833
▁French	-7834
▁Sozial	-7835
▁leider	-7836
▁Angeles	-7837
▁Zeichen	-7838
▁alleine	-7839
▁buchstä	-7840
▁fashion	-7841
▁foreign	-7842
▁stecken	-7843
▁turning	-7844
▁zufällig	-7845
▁sicherlich	-7846
▁entwickelten	-7847
▁kommunizieren	-7848
▁veröffentlicht	-7849
aos	-7850
far	-7851
olo	-7852
▁ta	-7853
ippe	-7854
▁Pri	-7855
▁cry	-7856
▁daß	-7857
ocken	-7858
▁Asia	-7859
▁seed	-7860
fallen	-7861
▁Anges	-7862
▁Ghana	-7863
▁Masse	-7864
▁alter	-7865
▁simpl	-7866
▁sorry	-7867
▁erstes	-7868
▁Einfach	-7869
▁Modelle	-7870
▁describe	-7871
▁brilliant	-7872
2-	-7873
ruf	-7874
äbe	-7875
spra	-7876
stab	-7877
vity	-7878
▁gun	-7879
▁zuk	-7880
chnen	-7881
urcht	-7882
zelle	-7883
▁Heil	-7884
▁Last	-7885
▁core	-7886
▁recy	-7887
▁wood	-7888
▁Sport	-7889
▁Stoff	-7890
▁calls	-7891
▁disor	-7892
▁künst	-7893
▁proud	-7894
▁tolle	-7895
▁Kontin	-7896
▁charge	-7897
▁hinweg	-7898
▁erwartet	-7899
▁rational	-7900
▁Identität	-7901
▁leadership	-7902
▁Lebensmittel	-7903
60	-7904
Don	-7905
car	-7906
inc	-7907
van	-7908
angs	-7909
renz	-7910
yram	-7911
etter	-7912
halte	-7913
volle	-7914
▁Drei	-7915
▁Fest	-7916
▁Rede	-7917
▁Take	-7918
▁abzu	-7919
▁forg	-7920
▁Basis	-7921
▁Laden	-7922
▁coast	-7923
▁email	-7924
▁weiss	-7925
setzung	-7926
▁Mexico	-7927
▁Nutzen	-7928
▁corpor	-7929
▁remote	-7930
▁Kontext	-7931
▁abgesch	-7932
▁concent	-7933
▁despite	-7934
▁geführt	-7935
▁planets	-7936
▁virtual	-7937
▁Audience	-7938
▁bezahlen	-7939
▁deutlich	-7940
▁vermutlich	-7941
▁durchgeführt	-7942
igr	-7943
zweif	-7944
▁Fabr	-7945
▁Link	-7946
▁Pers	-7947
▁bird	-7948
▁iron	-7949
▁trag	-7950
▁Child	-7951
▁Haiti	-7952
▁Handy	-7953
▁Keine	-7954
▁Schne	-7955
▁Treib	-7956
▁condu	-7957
▁dreht	-7958
▁invis	-7959
▁krank	-7960
▁neuer	-7961
▁Satell	-7962
▁bridge	-7963
▁colors	-7964
▁events	-7965
▁haupts	-7966
▁physic	-7967
richtung	-7968
▁Science	-7969
▁ausgest	-7970
▁European	-7971
▁besitzen	-7972
▁eingesch	-7973
▁elements	-7974
▁partners	-7975
▁Charakter	-7976
▁Vertrauen	-7977
▁Bildschirm	-7978
▁importantly	-7979
xis	-7980
▁Ac	-7981
iner	-7982
spir	-7983
▁Bal	-7984
▁Fün	-7985
▁Mod	-7986
▁Sen	-7987
▁usw	-7988
itely	-7989
lecht	-7990
▁Graf	-7991
laufen	-7992
oppelt	-7993
rennen	-7994
ulated	-7995
ährung	-7996
▁Affen	-7997
▁noise	-7998
▁prior	-7999
▁wider	-8000
wechsel	-8001
▁Nichts	-8002
▁Themen	-8003
▁Vision	-8004
▁easier	-8005
▁meters	-8006
▁sector	-8007
▁werfen	-8008
▁husband	-8009
▁illegal	-8010
▁weapons	-8011
▁zukünft	-8012
que	-8013
▁Wü	-8014
fält	-8015
gern	-8016
iche	-8017
▁Mad	-8018
asche	-8019
ausch	-8020
icted	-8021
igend	-8022
▁Sehr	-8023
▁stem	-8024
▁Falls	-8025
▁broad	-8026
▁exerc	-8027
▁wohin	-8028
▁Thomas	-8029
▁infect	-8030
▁master	-8031
▁versus	-8032
▁Schmerz	-8033
▁anderem	-8034
▁figured	-8035
▁Großteil	-8036
▁distance	-8037
▁modernen	-8038
▁relevant	-8039
▁Milliarde	-8040
▁gestalten	-8041
▁repräsent	-8042
▁natürliche	-8043
▁necessarily	-8044
Du	-8045
▁Cr	-8046
pper	-8047
▁Hil	-8048
▁Lar	-8049
▁Log	-8050
▁Rem	-8051
▁Irak	-8052
▁held	-8053
▁hung	-8054
▁nutz	-8055
▁puzz	-8056
ession	-8057
ighten	-8058
▁Beine	-8059
▁Liter	-8060
▁attem	-8061
▁gebra	-8062
▁laugh	-8063
▁quote	-8064
▁stolz	-8065
▁tough	-8066
▁töten	-8067
▁Geräte	-8068
▁dollar	-8069
▁dreams	-8070
▁epidem	-8071
ifically	-8072
▁Polizei	-8073
▁brother	-8074
▁suffering	-8075
▁buchstäblich	-8076
PA	-8077
bi	-8078
iop	-8079
irk	-8080
ros	-8081
änn	-8082
▁AB	-8083
onds	-8084
▁Ach	-8085
▁Akt	-8086
▁Dra	-8087
▁Lad	-8088
eared	-8089
krank	-8090
ulous	-8091
▁läch	-8092
▁mill	-8093
zeiten	-8094
▁accur	-8095
▁bound	-8096
▁faith	-8097
▁giant	-8098
▁truck	-8099
▁ancest	-8100
▁entspr	-8101
▁gewöhn	-8102
▁photos	-8103
▁raised	-8104
▁Gewicht	-8105
▁balance	-8106
▁fragten	-8107
▁related	-8108
▁Korallen	-8109
▁Problemen	-8110
▁definition	-8111
path	-8112
▁ban	-8113
▁lat	-8114
etten	-8115
▁Ecke	-8116
▁fell	-8117
▁halb	-8118
uadrat	-8119
wirken	-8120
▁Mobil	-8121
▁Staat	-8122
▁Stein	-8123
▁helps	-8124
▁ideal	-8125
▁indic	-8126
artment	-8127
astroph	-8128
▁Island	-8129
▁Sorgen	-8130
▁antwor	-8131
▁grandm	-8132
▁schöne	-8133
▁sculpt	-8134
▁Bildern	-8135
▁regular	-8136
forschung	-8137
▁Galaxien	-8138
▁gelangen	-8139
▁Sometimes	-8140
▁überrascht	-8141
ety	-8142
This	-8143
apse	-8144
cles	-8145
rale	-8146
▁Haw	-8147
▁dou	-8148
▁dur	-8149
bling	-8150
folgt	-8151
▁Jack	-8152
▁auth	-8153
▁boat	-8154
▁glam	-8155
▁port	-8156
öffnet	-8157
ördern	-8158
▁Jungs	-8159
▁Metap	-8160
▁Zeich	-8161
▁hängt	-8162
▁river	-8163
▁Bauern	-8164
▁opened	-8165
▁Gründen	-8166
▁appreci	-8167
▁contact	-8168
▁destroy	-8169
▁kümmern	-8170
▁leading	-8171
▁Kindheit	-8172
▁Leistung	-8173
▁billions	-8174
▁erinnert	-8175
▁nächstes	-8176
▁previous	-8177
▁tausende	-8178
▁intellect	-8179
▁verfolgen	-8180
▁alternative	-8181
▁interagieren	-8182
▁Institutionen	-8183
.'	-8184
ded	-8185
ees	-8186
▁DH	-8187
ifen	-8188
▁Ass	-8189
▁Bio	-8190
▁Bur	-8191
▁pun	-8192
izien	-8193
▁Inst	-8194
▁Sein	-8195
▁leid	-8196
schaff	-8197
▁grass	-8198
▁stuck	-8199
gewicht	-8200
▁aussch	-8201
▁religi	-8202
▁Drittel	-8203
▁Gesetze	-8204
▁However	-8205
▁holding	-8206
▁typical	-8207
istischen	-8208
▁Kaliforn	-8209
▁sequence	-8210
▁Gegenteil	-8211
▁gegenseit	-8212
▁necessary	-8213
▁structures	-8214
Der	-8215
cked	-8216
oret	-8217
soft	-8218
▁cro	-8219
agers	-8220
aters	-8221
inkel	-8222
▁Eing	-8223
▁mamm	-8224
▁compl	-8225
▁crash	-8226
▁fragt	-8227
▁halte	-8228
▁hohen	-8229
▁Konsum	-8230
▁brings	-8231
▁clever	-8232
▁contra	-8233
▁convin	-8234
▁dürfen	-8235
▁romant	-8236
▁sorgen	-8237
▁steckt	-8238
▁derzeit	-8239
▁falsche	-8240
▁succeed	-8241
▁Sprachen	-8242
▁Wahrnehm	-8243
▁Zweitens	-8244
▁entirely	-8245
▁ultimately	-8246
▁responsible	-8247
Ar	-8248
ipe	-8249
irt	-8250
▁BG	-8251
▁II	-8252
ehnt	-8253
iban	-8254
ötet	-8255
▁Bob	-8256
▁Did	-8257
▁joy	-8258
cting	-8259
werte	-8260
▁Very	-8261
▁band	-8262
▁edge	-8263
▁sinn	-8264
▁Herst	-8265
▁Statt	-8266
▁leads	-8267
▁mouse	-8268
▁offer	-8269
▁Global	-8270
▁Meilen	-8271
▁Rahmen	-8272
▁Zuerst	-8273
▁lieber	-8274
▁identif	-8275
ffentlich	-8276
▁document	-8277
▁platform	-8278
▁bestimmen	-8279
▁childhood	-8280
▁verbracht	-8281
▁Erinnerung	-8282
▁irgendwann	-8283
AR	-8284
bie	-8285
igm	-8286
▁Bef	-8287
▁Tur	-8288
▁mor	-8289
▁shr	-8290
idden	-8291
▁Bett	-8292
▁Emot	-8293
▁Kann	-8294
▁Lern	-8295
▁Lied	-8296
▁ausl	-8297
ancing	-8298
▁Apple	-8299
▁Genom	-8300
▁Mount	-8301
▁Solar	-8302
▁cloud	-8303
▁moves	-8304
▁newsp	-8305
gesehen	-8306
ometers	-8307
▁pounds	-8308
▁Verlust	-8309
▁correct	-8310
▁insects	-8311
▁leaving	-8312
▁require	-8313
▁shouldn	-8314
▁Forscher	-8315
▁weiteren	-8316
richtungen	-8317
▁entwerfen	-8318
▁schließen	-8319
▁verhindern	-8320
▁Kohlenstoff	-8321
▁professional	-8322
3,	-8323
ses	-8324
eper	-8325
osis	-8326
▁tit	-8327
beweg	-8328
chern	-8329
itete	-8330
idents	-8331
tended	-8332
▁Brenn	-8333
▁Stift	-8334
▁paint	-8335
▁beteil	-8336
▁deinen	-8337
▁gehabt	-8338
▁wächst	-8339
▁counter	-8340
▁kompliz	-8341
ibilities	-8342
▁believed	-8343
▁scheinen	-8344
▁Microsoft	-8345
▁allgemein	-8346
esentlichen	-8347
▁verwandeln	-8348
▁wunderbare	-8349
▁mathematics	-8350
▁möglicherweise	-8351
aks	-8352
xim	-8353
prob	-8354
udes	-8355
▁Off	-8356
ffekt	-8357
▁Sing	-8358
▁lies	-8359
▁seat	-8360
▁Filme	-8361
▁Kapit	-8362
▁walls	-8363
▁wheel	-8364
atively	-8365
▁Gewebe	-8366
▁Händen	-8367
▁caught	-8368
▁closed	-8369
▁slowly	-8370
jährigen	-8371
▁Wichtig	-8372
▁gewisse	-8373
▁schwarz	-8374
▁studied	-8375
▁täglich	-8376
▁besseren	-8377
▁strategy	-8378
▁discovery	-8379
▁influence	-8380
▁operating	-8381
▁president	-8382
▁begeistert	-8383
▁university	-8384
wissenschaft	-8385
▁hauptsächlich	-8386
Nun	-8387
set	-8388
▁Ox	-8389
▁UN	-8390
enty	-8391
kton	-8392
▁Nan	-8393
▁ast	-8394
▁kit	-8395
asion	-8396
hafte	-8397
riage	-8398
▁Fund	-8399
▁ants	-8400
▁exch	-8401
▁roof	-8402
aschen	-8403
astrop	-8404
jekten	-8405
▁Motor	-8406
▁click	-8407
▁resol	-8408
▁Nation	-8409
▁benutz	-8410
▁testen	-8411
maschine	-8412
▁display	-8413
▁matters	-8414
▁trained	-8415
▁Konflikt	-8416
▁creation	-8417
▁fighting	-8418
▁prototyp	-8419
▁Aktivität	-8420
▁einsetzen	-8421
▁Strukturen	-8422
▁constantly	-8423
▁öffentlich	-8424
ffentlichkeit	-8425
▁unfortunately	-8426
ua	-8427
ppe	-8428
äst	-8429
aken	-8430
loss	-8431
ößen	-8432
▁Koh	-8433
▁Mem	-8434
▁tue	-8435
illed	-8436
▁1950	-8437
▁Boot	-8438
▁Frem	-8439
▁Maus	-8440
▁enth	-8441
ategie	-8442
▁Außen	-8443
▁Count	-8444
▁angew	-8445
▁embra	-8446
▁exhib	-8447
▁weder	-8448
▁budget	-8449
▁degree	-8450
▁narrat	-8451
▁parent	-8452
ausenden	-8453
illionen	-8454
▁Teilchen	-8455
▁emotions	-8456
▁separate	-8457
▁vorhanden	-8458
▁investment	-8459
▁vollständig	-8460
▁letztendlich	-8461
5.	-8462
▁Ug	-8463
gehe	-8464
oben	-8465
wegs	-8466
▁Aug	-8467
▁Tun	-8468
▁spl	-8469
anner	-8470
apers	-8471
▁Bras	-8472
▁Once	-8473
neiden	-8474
nissen	-8475
▁Spekt	-8476
▁talks	-8477
ampagne	-8478
issions	-8479
▁glaubt	-8480
▁lesson	-8481
▁oceans	-8482
esterday	-8483
▁Fleisch	-8484
▁bemerkt	-8485
▁factory	-8486
▁Elektron	-8487
▁Experten	-8488
▁surprise	-8489
▁zunehmen	-8490
▁gefährlich	-8491
▁Schimpansen	-8492
▁irgendetwas	-8493
▁civilization	-8494
ahe	-8495
pos	-8496
▁ru	-8497
Talk	-8498
▁Ehe	-8499
elesc	-8500
fahrt	-8501
offen	-8502
schlä	-8503
unken	-8504
▁Bush	-8505
▁Have	-8506
▁empt	-8507
▁hate	-8508
▁hohe	-8509
itiven	-8510
▁Ziele	-8511
▁climb	-8512
▁starb	-8513
jährige	-8514
ächtnis	-8515
▁Elektr	-8516
▁Gefahr	-8517
▁adults	-8518
▁deeply	-8519
▁failed	-8520
▁finanz	-8521
▁museum	-8522
▁stelle	-8523
▁General	-8524
▁acceler	-8525
▁getötet	-8526
blichkeit	-8527
▁Außerdem	-8528
▁Standard	-8529
▁Stanford	-8530
▁finished	-8531
▁galaxies	-8532
▁angesehen	-8533
▁concerned	-8534
▁organisms	-8535
▁depression	-8536
▁versuchten	-8537
▁wichtigste	-8538
▁fascinating	-8539
▁interessieren	-8540
icon	-8541
nden	-8542
oons	-8543
tert	-8544
▁Hal	-8545
▁Opt	-8546
▁Pra	-8547
▁Syn	-8548
▁ter	-8549
▁ton	-8550
allel	-8551
eline	-8552
ipped	-8553
orrow	-8554
▁Fünf	-8555
▁Span	-8556
▁Volk	-8557
▁moon	-8558
▁myth	-8559
▁soil	-8560
▁tour	-8561
atoren	-8562
▁Texas	-8563
▁begeg	-8564
▁setzt	-8565
istence	-8566
▁Heimat	-8567
▁finger	-8568
▁Verkehr	-8569
▁benefit	-8570
▁reprodu	-8571
▁station	-8572
▁traffic	-8573
zubringen	-8574
▁advantage	-8575
▁engineers	-8576
▁invisible	-8577
▁collective	-8578
▁mindestens	-8579
80	-8580
Os	-8581
bas	-8582
cil	-8583
öpf	-8584
oler	-8585
▁cla	-8586
▁pet	-8587
asten	-8588
pielt	-8589
▁pair	-8590
abetes	-8591
itness	-8592
werten	-8593
▁argue	-8594
▁frage	-8595
▁sport	-8596
▁Mütter	-8597
▁Republ	-8598
▁begins	-8599
▁bright	-8600
▁phones	-8601
▁Deutsch	-8602
▁capable	-8603
▁präsent	-8604
▁schönen	-8605
▁Verstand	-8606
▁praktisch	-8607
▁Landschaft	-8608
▁Verhaltens	-8609
▁arbeiteten	-8610
▁interaction	-8611
▁amerikanische	-8612
bahn	-8613
best	-8614
sinn	-8615
▁Fel	-8616
▁fab	-8617
▁kap	-8618
▁sac	-8619
ength	-8620
letzt	-8621
▁Diag	-8622
▁Janu	-8623
▁purs	-8624
iminal	-8625
mutter	-8626
▁Bitte	-8627
▁Olymp	-8628
hältnis	-8629
▁Irgend	-8630
▁Stress	-8631
▁Zimmer	-8632
▁attach	-8633
▁bieten	-8634
▁leader	-8635
▁letter	-8636
▁sister	-8637
▁Militär	-8638
▁Stimmen	-8639
▁einiger	-8640
▁managed	-8641
▁compared	-8642
▁Everybody	-8643
▁eingesetzt	-8644
▁Interaktion	-8645
▁verantwortlich	-8646
4.	-8647
ädt	-8648
gabe	-8649
iern	-8650
teid	-8651
unte	-8652
▁21.	-8653
▁Gas	-8654
▁row	-8655
craft	-8656
geber	-8657
lafen	-8658
▁Flor	-8659
▁bone	-8660
▁opin	-8661
schule	-8662
▁fresh	-8663
▁hyper	-8664
▁kennt	-8665
▁kurze	-8666
▁musst	-8667
▁Folgen	-8668
▁Haufen	-8669
▁detail	-8670
▁erster	-8671
verständ	-8672
▁Gedanke	-8673
▁Verletz	-8674
▁artific	-8675
▁erzähle	-8676
▁wenigen	-8677
▁fotograf	-8678
▁Wettbewer	-8679
pet	-8680
aked	-8681
ocks	-8682
olph	-8683
prom	-8684
ties	-8685
▁Ans	-8686
▁Ins	-8687
▁emb	-8688
▁era	-8689
▁pal	-8690
▁prä	-8691
▁tag	-8692
▁ält	-8693
aufte	-8694
ckten	-8695
plane	-8696
▁Code	-8697
▁whom	-8698
ipment	-8699
kehren	-8700
▁Kenya	-8701
▁brief	-8702
▁immun	-8703
▁klass	-8704
▁teuer	-8705
▁garden	-8706
▁reward	-8707
▁dritten	-8708
▁invited	-8709
▁married	-8710
▁vehicle	-8711
▁weather	-8712
▁gehalten	-8713
▁languages	-8714
▁perfectly	-8715
▁consumption	-8716
▁hoffentlich	-8717
▁öffentliche	-8718
▁unterscheiden	-8719
ka	-8720
▁Wä	-8721
ence	-8722
schm	-8723
▁Eig	-8724
▁Kal	-8725
▁cam	-8726
ippen	-8727
macht	-8728
ordin	-8729
▁Aust	-8730
▁Beob	-8731
▁Dunk	-8732
▁drag	-8733
▁herr	-8734
▁king	-8735
afrika	-8736
hrough	-8737
▁Defin	-8738
▁eleph	-8739
▁holen	-8740
▁circle	-8741
▁galaxy	-8742
▁nannte	-8743
▁wisdom	-8744
▁basiert	-8745
▁bekamen	-8746
▁empower	-8747
▁nochmal	-8748
▁majority	-8749
▁meistens	-8750
▁Schwester	-8751
▁described	-8752
▁otherwise	-8753
▁surprised	-8754
▁Forschungs	-8755
▁businesses	-8756
▁kompliziert	-8757
vin	-8758
aled	-8759
care	-8760
gans	-8761
prof	-8762
rast	-8763
▁spr	-8764
osion	-8765
uries	-8766
utzer	-8767
▁Mund	-8768
▁Star	-8769
▁meat	-8770
▁reve	-8771
immung	-8772
▁Innen	-8773
▁Nobel	-8774
▁Three	-8775
▁coral	-8776
▁quiet	-8777
▁surge	-8778
▁veget	-8779
▁Grenze	-8780
▁Häuser	-8781
▁dauert	-8782
▁paying	-8783
▁Spiegel	-8784
▁protein	-8785
▁wearing	-8786
▁Algorith	-8787
▁finanzie	-8788
▁followed	-8789
▁normalen	-8790
▁schlimmer	-8791
▁equivalent	-8792
▁Perspektive	-8793
▁agriculture	-8794
gro	-8795
pra	-8796
ühr	-8797
inkt	-8798
onym	-8799
sens	-8800
▁Rot	-8801
▁tal	-8802
place	-8803
▁Fehl	-8804
▁Hins	-8805
▁Jeff	-8806
▁Sind	-8807
▁Temp	-8808
▁wear	-8809
▁weib	-8810
▁cycle	-8811
▁grown	-8812
▁plane	-8813
bewesen	-8814
▁10.000	-8815
▁Uganda	-8816
▁exists	-8817
▁gesund	-8818
▁string	-8819
▁insight	-8820
▁mothers	-8821
▁schaute	-8822
▁Dinosaur	-8823
▁Eindruck	-8824
▁Nationen	-8825
▁aufhören	-8826
▁everyday	-8827
▁launched	-8828
▁molecule	-8829
▁classroom	-8830
▁entworfen	-8831
möglichkeit	-8832
▁Erkenntnis	-8833
▁Kalifornien	-8834
▁ju	-8835
aßen	-8836
keln	-8837
läss	-8838
▁Dad	-8839
▁Zer	-8840
▁rat	-8841
andem	-8842
esign	-8843
known	-8844
ologe	-8845
▁Each	-8846
▁Pfer	-8847
▁aufs	-8848
▁earn	-8849
▁fold	-8850
▁stup	-8851
bracht	-8852
▁Egypt	-8853
▁Radio	-8854
▁equal	-8855
▁lernt	-8856
▁traur	-8857
▁verme	-8858
▁Bruder	-8859
▁Fische	-8860
▁Minute	-8861
▁Obwohl	-8862
▁ließen	-8863
▁linken	-8864
▁unless	-8865
▁Gleiche	-8866
▁depress	-8867
▁Gespräch	-8868
▁mentioned	-8869
▁beantworten	-8870
▁hergestellt	-8871
asi	-8872
rol	-8873
ura	-8874
iors	-8875
▁Law	-8876
aming	-8877
leren	-8878
ängst	-8879
▁Dass	-8880
▁Orig	-8881
▁Vide	-8882
▁gold	-8883
▁horr	-8884
▁vacc	-8885
pected	-8886
uliert	-8887
▁Autor	-8888
▁Folge	-8889
▁Klang	-8890
▁Kleid	-8891
▁Laufe	-8892
▁grade	-8893
problem	-8894
▁Rätsel	-8895
▁ausgeb	-8896
▁incent	-8897
▁mitten	-8898
▁Gehirne	-8899
▁vorhers	-8900
▁hunderte	-8901
▁Folgendes	-8902
▁seriously	-8903
▁wesentlich	-8904
▁Experimente	-8905
▁unterschiedlich	-8906
uel	-8907
▁BF	-8908
icke	-8909
pher	-8910
▁Nar	-8911
▁Rat	-8912
▁due	-8913
scher	-8914
▁1990	-8915
▁Roll	-8916
▁gäbe	-8917
▁hasn	-8918
hängig	-8919
▁Beste	-8920
▁chann	-8921
▁limit	-8922
▁regel	-8923
▁round	-8924
▁wahre	-8925
▁Effekt	-8926
▁Mechan	-8927
▁dinner	-8928
▁lebens	-8929
▁lustig	-8930
ologists	-8931
▁drawing	-8932
▁highest	-8933
ungskraft	-8934
▁Moleküle	-8935
▁feedback	-8936
▁normally	-8937
▁Gegensatz	-8938
▁economics	-8939
▁equipment	-8940
▁entspricht	-8941
▁existieren	-8942
▁Unternehmer	-8943
▁vergleichen	-8944
▁interessanter	-8945
oca	-8946
squ	-8947
tte	-8948
▁Fa	-8949
zing	-8950
▁195	-8951
▁Anw	-8952
▁Cal	-8953
▁Ham	-8954
▁Ill	-8955
▁Mac	-8956
▁zog	-8957
acher	-8958
ischt	-8959
▁Dere	-8960
▁Pass	-8961
▁Rock	-8962
▁beib	-8963
▁magn	-8964
gewalt	-8965
gruppe	-8966
ipping	-8967
urally	-8968
▁2,000	-8969
▁Ganze	-8970
▁lunch	-8971
▁nutzt	-8972
▁trägt	-8973
▁wieso	-8974
artigen	-8975
▁Toilet	-8976
▁aufgew	-8977
▁breath	-8978
▁diskut	-8979
▁erlebt	-8980
▁hoffen	-8981
▁Project	-8982
▁Vorteil	-8983
▁Zuhause	-8984
▁limited	-8985
▁reichen	-8986
▁tausend	-8987
▁multiple	-8988
▁planning	-8989
▁Politiker	-8990
▁continent	-8991
▁allerdings	-8992
▁principles	-8993
▁distribution	-8994
BI	-8995
ähn	-8996
▁'9	-8997
▁Ap	-8998
aped	-8999
enkt	-9000
ifik	-9001
omme	-9002
urer	-9003
vere	-9004
wide	-9005
▁Int	-9006
▁sum	-9007
itzer	-9008
izont	-9009
reien	-9010
▁beat	-9011
▁ober	-9012
▁peng	-9013
▁wave	-9014
▁Found	-9015
▁State	-9016
▁dolph	-9017
▁faces	-9018
▁pages	-9019
▁roten	-9020
meister	-9021
▁Chirur	-9022
▁belong	-9023
▁gering	-9024
▁reform	-9025
▁shapes	-9026
▁stabil	-9027
▁Germany	-9028
▁curious	-9029
▁dennoch	-9030
▁genauer	-9031
▁nervous	-9032
▁organic	-9033
▁relativ	-9034
▁treated	-9035
imensions	-9036
▁airplane	-9037
▁erkannte	-9038
▁survival	-9039
▁principle	-9040
If	-9041
har	-9042
hlt	-9043
▁26	-9044
cast	-9045
geln	-9046
hers	-9047
olit	-9048
▁Deb	-9049
▁Pac	-9050
▁dry	-9051
hlung	-9052
▁Impf	-9053
▁Pres	-9054
▁agre	-9055
▁arms	-9056
▁zeit	-9057
fragen	-9058
▁Hotel	-9059
▁Reich	-9060
▁somit	-9061
ologist	-9062
▁Andere	-9063
▁Streit	-9064
▁academ	-9065
▁empath	-9066
▁mittel	-9067
▁starke	-9068
▁vieler	-9069
▁Körpers	-9070
▁Mission	-9071
▁Theater	-9072
▁warming	-9073
▁wechsel	-9074
▁designer	-9075
▁erfinden	-9076
▁received	-9077
önlichkeit	-9078
▁hopefully	-9079
▁entstanden	-9080
▁increasingly	-9081
can	-9082
avig	-9083
gien	-9084
leit	-9085
lieb	-9086
ohol	-9087
▁gig	-9088
isher	-9089
ähren	-9090
▁Does	-9091
▁Manh	-9092
▁bull	-9093
▁engl	-9094
▁fiel	-9095
▁intu	-9096
agiert	-9097
rument	-9098
▁rural	-9099
▁users	-9100
glieder	-9101
▁Kräfte	-9102
▁Zucker	-9103
▁circum	-9104
▁echten	-9105
▁manage	-9106
▁müsste	-9107
▁schick	-9108
▁schien	-9109
▁toward	-9110
▁100,000	-9111
▁article	-9112
▁normale	-9113
▁Arbeiten	-9114
▁Japanese	-9115
▁magazine	-9116
▁schlagen	-9117
▁brauchten	-9118
▁wichtigen	-9119
▁Eigentlich	-9120
▁dimensions	-9121
▁instrument	-9122
▁statistics	-9123
▁entwickelte	-9124
▁generations	-9125
▁transformation	-9126
akte	-9127
andt	-9128
comp	-9129
gers	-9130
wich	-9131
wärt	-9132
▁Inn	-9133
▁Sur	-9134
▁Ven	-9135
▁Vis	-9136
auern	-9137
fisch	-9138
gment	-9139
owers	-9140
▁Gras	-9141
▁Mess	-9142
▁Samm	-9143
▁situ	-9144
anders	-9145
▁Krise	-9146
▁Milch	-9147
▁Titan	-9148
▁lebte	-9149
▁Lachen	-9150
▁debate	-9151
▁harder	-9152
▁thinks	-9153
▁Elektro	-9154
▁gelesen	-9155
▁privile	-9156
▁Hinsicht	-9157
▁brachten	-9158
▁investig	-9159
▁cognitive	-9160
▁effizient	-9161
▁universal	-9162
▁Augenblick	-9163
▁Bewegungen	-9164
▁verbreiten	-9165
So	-9166
ls	-9167
▁22	-9168
▁65	-9169
ares	-9170
cket	-9171
▁Sar	-9172
▁1980	-9173
▁Pfle	-9174
▁Phot	-9175
▁dran	-9176
▁tail	-9177
▁verf	-9178
atures	-9179
ischem	-9180
▁Erleb	-9181
▁Etwas	-9182
▁Kohle	-9183
▁Trotz	-9184
▁chain	-9185
▁chimp	-9186
▁heads	-9187
▁steps	-9188
ordnung	-9189
▁Beweis	-9190
▁Rechte	-9191
▁drüben	-9192
▁expert	-9193
▁fields	-9194
▁kurzen	-9195
▁leaves	-9196
▁stupid	-9197
▁beinhal	-9198
▁bezahlt	-9199
▁brauche	-9200
▁compare	-9201
▁gestern	-9202
▁demokrat	-9203
▁property	-9204
▁Lebewesen	-9205
▁technical	-9206
▁Organismen	-9207
▁persönlich	-9208
nel	-9209
äum	-9210
mitt	-9211
▁11.	-9212
▁120	-9213
▁Pfl	-9214
▁Tie	-9215
▁nan	-9216
▁ruh	-9217
▁ten	-9218
estic	-9219
ifest	-9220
osing	-9221
power	-9222
▁Fett	-9223
▁Gand	-9224
▁Null	-9225
▁Open	-9226
▁Zell	-9227
▁reef	-9228
werden	-9229
▁Armen	-9230
▁Carol	-9231
▁Ihres	-9232
▁Start	-9233
▁Would	-9234
reitung	-9235
▁Wellen	-9236
▁driver	-9237
▁zahlen	-9238
▁Nachdem	-9239
▁vorbere	-9240
▁aufbauen	-9241
▁ordinary	-9242
▁sentence	-9243
▁zunächst	-9244
ituationen	-9245
▁Australia	-9246
▁Hollywood	-9247
▁Entdeckung	-9248
▁Satelliten	-9249
▁Generationen	-9250
Ge	-9251
ardo	-9252
iano	-9253
kept	-9254
▁Pfe	-9255
▁tox	-9256
▁1960	-9257
▁Auss	-9258
▁Dach	-9259
▁Elef	-9260
▁Empf	-9261
▁Krit	-9262
▁enem	-9263
▁männ	-9264
istent	-9265
riften	-9266
▁aufta	-9267
▁categ	-9268
▁crime	-9269
▁daily	-9270
▁fängt	-9271
▁homes	-9272
▁lifet	-9273
amerika	-9274
fassung	-9275
fordert	-9276
▁Grafik	-9277
▁belief	-9278
▁motion	-9279
▁Ansicht	-9280
▁angesch	-9281
▁covered	-9282
▁fördern	-9283
▁letters	-9284
▁theater	-9285
▁Methoden	-9286
▁Zeitalter	-9287
▁according	-9288
▁electrical	-9289
▁reduzieren	-9290
▁experienced	-9291
ae	-9292
hö	-9293
icy	-9294
ita	-9295
vis	-9296
▁La	-9297
adel	-9298
pass	-9299
rete	-9300
cking	-9301
lease	-9302
▁coal	-9303
▁pure	-9304
▁trip	-9305
minist	-9306
ondere	-9307
▁Dabei	-9308
▁Korea	-9309
▁Their	-9310
▁Weile	-9311
▁heavy	-9312
▁versp	-9313
ografie	-9314
schrift	-9315
▁Aspekt	-9316
▁Fakten	-9317
▁Jemand	-9318
▁Steuer	-9319
▁damage	-9320
▁enable	-9321
▁fourth	-9322
▁island	-9323
sätzlich	-9324
▁Element	-9325
▁gehören	-9326
▁illustr	-9327
▁justice	-9328
▁killing	-9329
▁testing	-9330
▁volunte	-9331
▁watched	-9332
▁welchen	-9333
▁soldiers	-9334
▁Netzwerke	-9335
▁Everything	-9336
▁Individuen	-9337
▁verbrachte	-9338
üb	-9339
Yes	-9340
üge	-9341
üte	-9342
▁Ol	-9343
▁PM	-9344
▁af	-9345
bles	-9346
▁700	-9347
▁Dok	-9348
▁Net	-9349
▁SMS	-9350
▁rie	-9351
igern	-9352
inted	-9353
passt	-9354
riffe	-9355
teuer	-9356
tocin	-9357
▁Atom	-9358
▁Sens	-9359
▁Wein	-9360
▁bear	-9361
▁copy	-9362
▁ethn	-9363
▁jähr	-9364
▁valu	-9365
▁Jeden	-9366
▁Stock	-9367
▁anger	-9368
▁cloth	-9369
▁colon	-9370
▁einst	-9371
gegeben	-9372
▁Linien	-9373
▁Martin	-9374
▁hidden	-9375
▁Manhatt	-9376
▁setting	-9377
▁signals	-9378
▁Elemente	-9379
▁Tausende	-9380
▁abhängig	-9381
▁geändert	-9382
▁kürzlich	-9383
▁Abschluss	-9384
▁Gemeinden	-9385
▁Tradition	-9386
▁gestorben	-9387
▁Foundation	-9388
▁associated	-9389
▁definieren	-9390
▁erscheinen	-9391
▁kilometers	-9392
▁beschlossen	-9393
▁Elektrizität	-9394
▁consequences	-9395
olt	-9396
utt	-9397
▁Cy	-9398
anch	-9399
ctic	-9400
mann	-9401
pekt	-9402
▁10,	-9403
▁bom	-9404
▁gap	-9405
chnet	-9406
▁Wild	-9407
▁date	-9408
▁gesp	-9409
▁puts	-9410
ifying	-9411
schaut	-9412
ushing	-9413
▁Viren	-9414
▁autom	-9415
▁halbe	-9416
▁maint	-9417
▁novel	-9418
▁nötig	-9419
▁scene	-9420
gedacht	-9421
▁Ausmaß	-9422
▁Canada	-9423
▁Oxford	-9424
▁caused	-9425
▁explan	-9426
▁filled	-9427
▁implic	-9428
▁movies	-9429
▁starten	-9430
▁astronom	-9431
▁effektiv	-9432
▁resource	-9433
▁Zuschauer	-9434
▁beschloss	-9435
▁currently	-9436
▁essential	-9437
▁vergangen	-9438
▁beeindruck	-9439
▁auseinander	-9440
▁verschwinden	-9441
▁traditionellen	-9442
▁ap	-9443
down	-9444
life	-9445
well	-9446
agina	-9447
kreis	-9448
zieht	-9449
▁Budd	-9450
▁Eben	-9451
▁Mass	-9452
▁rück	-9453
▁Peter	-9454
▁Tumor	-9455
▁Union	-9456
▁awful	-9457
▁facts	-9458
▁folks	-9459
▁holes	-9460
▁infin	-9461
▁passt	-9462
▁pengu	-9463
▁solch	-9464
▁subst	-9465
▁wobei	-9466
auspiel	-9467
stellte	-9468
▁Garten	-9469
▁advert	-9470
▁analog	-9471
▁announ	-9472
▁hypoth	-9473
▁kombin	-9474
▁losing	-9475
▁meiste	-9476
▁perman	-9477
▁stammt	-9478
ätigkeit	-9479
▁Student	-9480
▁arrived	-9481
▁autonom	-9482
▁identify	-9483
▁aufregend	-9484
▁convinced	-9485
▁processes	-9486
▁yesterday	-9487
▁artificial	-9488
▁Wahrnehmung	-9489
▁grandmother	-9490
▁researchers	-9491
▁International	-9492
box	-9493
enz	-9494
ipl	-9495
kan	-9496
▁NG	-9497
ompl	-9498
phen	-9499
test	-9500
uous	-9501
▁Wei	-9502
▁cow	-9503
▁unl	-9504
affee	-9505
besch	-9506
elben	-9507
state	-9508
▁1970	-9509
▁Ober	-9510
▁Säug	-9511
▁cosm	-9512
▁diss	-9513
ichern	-9514
recher	-9515
staben	-9516
▁empty	-9517
▁folgt	-9518
▁liked	-9519
▁negot	-9520
▁niedr	-9521
▁shoes	-9522
zentrum	-9523
ographie	-9524
struktur	-9525
zuführen	-9526
▁players	-9527
▁Prototyp	-9528
▁ungewöhn	-9529
▁erscheint	-9530
▁verbindet	-9531
▁zerstören	-9532
▁darstellen	-9533
▁comfortable	-9534
▁grundlegende	-9535
3.	-9536
mas	-9537
rix	-9538
zep	-9539
zut	-9540
That	-9541
acle	-9542
ltra	-9543
resp	-9544
rett	-9545
skop	-9546
▁bee	-9547
emble	-9548
erves	-9549
omben	-9550
▁Viet	-9551
▁fuhr	-9552
▁grab	-9553
▁hadn	-9554
▁surf	-9555
▁weak	-9556
▁angeb	-9557
▁flies	-9558
▁quasi	-9559
▁saved	-9560
▁signs	-9561
▁sites	-9562
▁spoke	-9563
▁stood	-9564
▁Batter	-9565
▁Geräus	-9566
▁deeper	-9567
▁kurzem	-9568
▁lebten	-9569
▁spring	-9570
astrophe	-9571
▁Beweise	-9572
▁Details	-9573
▁Malaria	-9574
▁appropr	-9575
▁dealing	-9576
▁spielte	-9577
▁stärker	-9578
▁worüber	-9579
▁anwenden	-9580
▁behalten	-9581
▁nützlich	-9582
▁Erklärung	-9583
▁designing	-9584
▁satellite	-9585
▁Interessen	-9586
▁Produktion	-9587
▁considered	-9588
▁natürlichen	-9589
▁Schwierigkeiten	-9590
9.	-9591
Pl	-9592
ynd	-9593
▁Bu	-9594
ader	-9595
aler	-9596
edic	-9597
fish	-9598
würd	-9599
äuse	-9600
▁Eng	-9601
▁Nov	-9602
▁Top	-9603
ancen	-9604
ehren	-9605
ierer	-9606
lying	-9607
owing	-9608
▁Teen	-9609
▁bits	-9610
▁gall	-9611
▁scen	-9612
▁soph	-9613
▁Parad	-9614
▁erled	-9615
▁heran	-9616
▁layer	-9617
▁minim	-9618
▁Saturn	-9619
▁Staats	-9620
▁finish	-9621
▁reicht	-9622
▁verlie	-9623
▁voices	-9624
▁zählen	-9625
▁Berechn	-9626
▁Britain	-9627
▁Spieler	-9628
▁TEDTalk	-9629
▁Website	-9630
▁eindeut	-9631
▁opening	-9632
▁worried	-9633
▁engineer	-9634
▁entgegen	-9635
imensionen	-9636
▁Brasilien	-9637
▁Emotionen	-9638
▁Konsequen	-9639
▁Manhattan	-9640
▁studieren	-9641
▁verfügbar	-9642
▁importance	-9643
▁beschäftigen	-9644
Is	-9645
bru	-9646
hek	-9647
mel	-9648
obe	-9649
▁3.	-9650
icip	-9651
otic	-9652
unkl	-9653
gerät	-9654
▁Anim	-9655
▁Bron	-9656
▁Echt	-9657
▁Koll	-9658
▁Verw	-9659
▁drin	-9660
▁tall	-9661
▁trib	-9662
▁vess	-9663
▁vote	-9664
plomat	-9665
rechte	-9666
▁honor	-9667
▁perce	-9668
▁recon	-9669
▁übrig	-9670
frieden	-9671
▁Träume	-9672
▁Voraus	-9673
▁berühm	-9674
▁körper	-9675
▁muscle	-9676
▁nieder	-9677
▁picked	-9678
▁sharks	-9679
▁Maßstab	-9680
▁battery	-9681
▁cutting	-9682
▁morgens	-9683
▁Nachbarn	-9684
▁feelings	-9685
▁zerstört	-9686
▁President	-9687
▁aufgebaut	-9688
▁entdeckte	-9689
▁professor	-9690
▁wondering	-9691
▁innovative	-9692
▁management	-9693
▁Deutschland	-9694
EC	-9695
oli	-9696
zed	-9697
agos	-9698
emin	-9699
obby	-9700
rägt	-9701
▁pil	-9702
genda	-9703
llekt	-9704
mäßig	-9705
oster	-9706
theit	-9707
▁Atem	-9708
▁Belo	-9709
▁Kerl	-9710
▁Mary	-9711
▁Talk	-9712
▁hide	-9713
▁libr	-9714
heimer	-9715
▁Cambr	-9716
▁Gates	-9717
▁Smith	-9718
▁spont	-9719
▁teeth	-9720
▁wuchs	-9721
drücken	-9722
erneath	-9723
▁Gewinn	-9724
▁setzte	-9725
▁videos	-9726
programm	-9727
▁calling	-9728
▁capture	-9729
▁experts	-9730
▁sources	-9731
▁Schatten	-9732
▁gewissen	-9733
▁reaction	-9734
▁struggle	-9735
▁geschickt	-9736
▁Mitarbeiter	-9737
▁connections	-9738
▁medizinische	-9739
ait	-9740
gyp	-9741
uhe	-9742
ula	-9743
▁32	-9744
irat	-9745
osex	-9746
oute	-9747
▁10-	-9748
▁Fas	-9749
▁Mah	-9750
▁bie	-9751
ended	-9752
iform	-9753
neten	-9754
▁Hack	-9755
▁chap	-9756
▁dots	-9757
▁ends	-9758
▁flat	-9759
▁umge	-9760
isters	-9761
ündete	-9762
▁Neben	-9763
▁Seine	-9764
▁Willi	-9765
▁blieb	-9766
▁verbl	-9767
ulating	-9768
▁Inhalt	-9769
▁Kaffee	-9770
▁Mexiko	-9771
▁Yorker	-9772
▁formen	-9773
▁status	-9774
▁Florida	-9775
▁erkennt	-9776
▁umgeben	-9777
▁variety	-9778
▁deswegen	-9779
▁expected	-9780
▁marriage	-9781
▁chimpanze	-9782
issenschaft	-9783
▁beobachtet	-9784
▁zugänglich	-9785
▁faszinierend	-9786
7.	-9787
ET	-9788
He	-9789
isf	-9790
vas	-9791
yer	-9792
▁KB	-9793
anen	-9794
liot	-9795
umin	-9796
▁Bay	-9797
▁Hor	-9798
▁Jim	-9799
▁Mel	-9800
▁ens	-9801
▁inh	-9802
bares	-9803
iency	-9804
opath	-9805
▁Beim	-9806
▁Prim	-9807
▁Soll	-9808
▁Verd	-9809
▁diet	-9810
▁hurt	-9811
▁youn	-9812
nitten	-9813
onents	-9814
▁Neues	-9815
▁Vögel	-9816
▁solid	-9817
züglich	-9818
▁Anyway	-9819
▁encoun	-9820
▁fossil	-9821
▁heißen	-9822
▁steigt	-9823
▁Werbung	-9824
▁keeping	-9825
▁microsc	-9826
▁nations	-9827
▁Chemikal	-9828
▁Freundin	-9829
▁annehmen	-9830
▁cultures	-9831
▁tomorrow	-9832
▁interface	-9833
▁Geschlecht	-9834
▁Dinosaurier	-9835
▁independent	-9836
▁transparent	-9837
Do	-9838
ani	-9839
leg	-9840
▁95	-9841
▁ah	-9842
agon	-9843
atom	-9844
baut	-9845
elly	-9846
izer	-9847
star	-9848
▁mel	-9849
anzös	-9850
nimmt	-9851
▁Brun	-9852
▁Gree	-9853
▁Show	-9854
▁Tour	-9855
▁kick	-9856
▁summ	-9857
merzen	-9858
▁Fälle	-9859
▁Pingu	-9860
▁Seele	-9861
▁Tests	-9862
▁Zitat	-9863
▁ermut	-9864
bereich	-9865
▁Riesen	-9866
▁Schuld	-9867
▁safety	-9868
▁sample	-9869
▁skelet	-9870
▁zusätz	-9871
zusetzen	-9872
▁Vietnam	-9873
▁monitor	-9874
▁partner	-9875
▁roughly	-9876
▁Kulturen	-9877
▁advanced	-9878
▁analysis	-9879
▁ersetzen	-9880
▁requires	-9881
▁valuable	-9882
stellungen	-9883
▁Cambridge	-9884
▁Vorfahren	-9885
▁beschleun	-9886
▁entertain	-9887
▁underneath	-9888
▁vermitteln	-9889
▁Architekten	-9890
▁schrecklich	-9891
▁entrepreneurs	-9892
MA	-9893
NS	-9894
lad	-9895
uhr	-9896
war	-9897
dest	-9898
mehr	-9899
oles	-9900
▁800	-9901
▁Hey	-9902
▁Jes	-9903
▁Roh	-9904
olfen	-9905
▁Sitz	-9906
▁blau	-9907
▁lady	-9908
▁spät	-9909
▁susp	-9910
▁user	-9911
▁wide	-9912
iences	-9913
▁Febru	-9914
▁Stufe	-9915
▁appar	-9916
▁broke	-9917
▁cards	-9918
▁fähig	-9919
▁prove	-9920
▁vorne	-9921
▁waves	-9922
▁zieht	-9923
▁Größen	-9924
▁Umfeld	-9925
▁define	-9926
▁establ	-9927
▁trials	-9928
▁Schnitt	-9929
▁erwähnt	-9930
▁illness	-9931
▁carrying	-9932
▁hydrogen	-9933
▁schwarze	-9934
▁sprachen	-9935
▁Bereichen	-9936
▁langfrist	-9937
▁notwendig	-9938
▁producing	-9939
▁verhalten	-9940
▁Überrasch	-9941
▁inspiriert	-9942
▁properties	-9943
▁specifically	-9944
hai	-9945
ibe	-9946
aurs	-9947
herr	-9948
sver	-9949
▁Cor	-9950
▁dat	-9951
▁gay	-9952
glied	-9953
karte	-9954
ville	-9955
weile	-9956
▁Camp	-9957
▁Ungl	-9958
▁corn	-9959
▁evil	-9960
orient	-9961
rucken	-9962
▁Black	-9963
▁Sogar	-9964
▁admit	-9965
▁außen	-9966
▁crowd	-9967
▁fewer	-9968
▁fiber	-9969
▁unend	-9970
spielen	-9971
▁Erwart	-9972
▁Wetter	-9973
▁houses	-9974
▁treten	-9975
▁Präsent	-9976
▁cartoon	-9977
▁dynamic	-9978
▁gebeten	-9979
▁müssten	-9980
▁solcher	-9981
▁viruses	-9982
▁Arbeiter	-9983
▁verteilt	-9984
versorgung	-9985
▁Operation	-9986
▁chemistry	-9987
▁industrie	-9988
▁Buchstaben	-9989
▁expression	-9990
▁vulnerable	-9991
▁Situationen	-9992
▁effectively	-9993
▁Informations	-9994
▁intellectual	-9995
▁possibilities	-9996
LA	-9997
äne	-9998
ario	-9999
aube	-10000
flug	-10001
izop	-10002
kont	-10003
oses	-10004
ping	-10005
▁bul	-10006
▁rig	-10007
istor	-10008
orted	-10009
▁Homo	-10010
▁Vern	-10011
▁biom	-10012
▁exec	-10013
▁flie	-10014
▁gain	-10015
▁grid	-10016
kosten	-10017
▁Betra	-10018
▁Kreuz	-10019
▁Moral	-10020
▁Zweck	-10021
▁shall	-10022
▁sugar	-10023
▁Anteil	-10024
▁Bedroh	-10025
▁Einsch	-10026
▁Virgin	-10027
▁enorme	-10028
▁gender	-10029
▁hinten	-10030
▁player	-10031
▁schaff	-10032
issionen	-10033
izophren	-10034
▁aggress	-10035
▁berührt	-10036
▁niedrig	-10037
▁seitdem	-10038
▁übersch	-10039
isationen	-10040
verbrauch	-10041
▁Weltraum	-10042
▁consumer	-10043
▁convince	-10044
▁diagnost	-10045
▁exchange	-10046
▁location	-10047
▁relative	-10048
▁Potential	-10049
▁Strategie	-10050
▁existence	-10051
▁organized	-10052
▁sophistic	-10053
▁Großmutter	-10054
▁aufzubauen	-10055
▁situations	-10056
▁fantastisch	-10057
▁construction	-10058
▁persönlichen	-10059
IP	-10060
ij	-10061
wie	-10062
▁wü	-10063
iein	-10064
▁19.	-10065
▁191	-10066
▁Alz	-10067
▁LED	-10068
▁Ren	-10069
▁Sum	-10070
▁van	-10071
alyse	-10072
frien	-10073
ingly	-10074
linge	-10075
otten	-10076
staat	-10077
▁Wurz	-10078
▁rief	-10079
▁scre	-10080
▁shel	-10081
acters	-10082
iglich	-10083
▁Derek	-10084
▁Gutes	-10085
▁smile	-10086
▁Damals	-10087
▁Doktor	-10088
▁Welche	-10089
▁ausgel	-10090
▁facing	-10091
▁review	-10092
▁spezif	-10093
▁Auswahl	-10094
▁Entfern	-10095
▁cameras	-10096
▁hierher	-10097
▁mächtig	-10098
▁theoret	-10099
▁Congress	-10100
▁Minister	-10101
▁circumst	-10102
▁exercise	-10103
▁Jahrzehnt	-10104
▁chemicals	-10105
▁mortality	-10106
▁characters	-10107
▁schlechter	-10108
▁transition	-10109
▁untersucht	-10110
▁feststellen	-10111
▁stattdessen	-10112
DP	-10113
obi	-10114
ris	-10115
▁Ec	-10116
Look	-10117
▁Day	-10118
▁Tes	-10119
▁Urs	-10120
▁hur	-10121
▁lic	-10122
asste	-10123
chron	-10124
ünder	-10125
▁Fast	-10126
▁Such	-10127
▁beit	-10128
▁gegr	-10129
▁ring	-10130
▁snow	-10131
design	-10132
esents	-10133
▁Antar	-10134
▁Offen	-10135
▁hinge	-10136
▁hotel	-10137
▁rates	-10138
▁vorbe	-10139
▁zweit	-10140
achtung	-10141
ziehung	-10142
zufügen	-10143
▁Chemie	-10144
▁Health	-10145
▁forced	-10146
▁gelöst	-10147
▁verwir	-10148
▁winter	-10149
▁authent	-10150
▁contain	-10151
▁sending	-10152
▁Bereiche	-10153
▁Geräusch	-10154
▁entstand	-10155
▁generate	-10156
▁komplexe	-10157
▁messages	-10158
▁thoughts	-10159
▁whenever	-10160
▁Transport	-10161
▁Medikament	-10162
▁Verhältnis	-10163
▁corruption	-10164
▁relatively	-10165
▁represents	-10166
▁schlechten	-10167
verständlich	-10168
-1	-10169
azz	-10170
lem	-10171
atik	-10172
bors	-10173
ifer	-10174
izon	-10175
laub	-10176
rain	-10177
ught	-10178
wach	-10179
▁Ros	-10180
▁Wow	-10181
▁tap	-10182
hythm	-10183
iques	-10184
rooms	-10185
rufen	-10186
uropä	-10187
▁mode	-10188
▁suit	-10189
▁tons	-10190
▁unex	-10191
▁wake	-10192
▁wand	-10193
▁Lager	-10194
▁Stuhl	-10195
▁geist	-10196
▁sympt	-10197
entwick	-10198
steigen	-10199
ständen	-10200
▁Herren	-10201
▁Schlaf	-10202
▁Signal	-10203
▁conver	-10204
▁poetry	-10205
▁prefer	-10206
inosaurs	-10207
▁Konflik	-10208
▁spannen	-10209
▁überprü	-10210
▁emerging	-10211
▁erstellt	-10212
▁langweil	-10213
▁lifetime	-10214
▁Alzheimer	-10215
▁behaviors	-10216
▁carefully	-10217
▁wiederhol	-10218
▁Korruption	-10219
▁collection	-10220
▁restaurant	-10221
dam	-10222
sun	-10223
uts	-10224
Mail	-10225
ämpf	-10226
▁Jew	-10227
▁sla	-10228
▁zut	-10229
▁Alph	-10230
▁Kurs	-10231
▁Long	-10232
▁Teuf	-10233
▁Trag	-10234
▁erle	-10235
▁getr	-10236
▁grün	-10237
▁klin	-10238
▁maps	-10239
▁neut	-10240
▁poem	-10241
▁resc	-10242
▁tank	-10243
ichert	-10244
jemand	-10245
omente	-10246
stream	-10247
▁Human	-10248
▁Süden	-10249
▁divid	-10250
aurants	-10251
richtet	-10252
steroid	-10253
▁Gegend	-10254
▁Helden	-10255
▁Leider	-10256
▁Stärke	-10257
▁Winter	-10258
▁Wolken	-10259
▁bottle	-10260
▁ergibt	-10261
▁explod	-10262
▁heisst	-10263
▁kannte	-10264
▁langer	-10265
▁length	-10266
zukommen	-10267
▁Fliegen	-10268
▁Galaxie	-10269
▁selling	-10270
▁standen	-10271
▁victims	-10272
▁welchem	-10273
▁clinical	-10274
▁gespielt	-10275
▁graduate	-10276
▁parallel	-10277
▁systemat	-10278
▁versteht	-10279
▁Anwendung	-10280
▁Verbesser	-10281
▁aufnehmen	-10282
▁unabhängig	-10283
▁westlichen	-10284
▁unterstützt	-10285
möglichkeiten	-10286
▁Erinnerungen	-10287
fir	-10288
▁ce	-10289
alem	-10290
eres	-10291
ller	-10292
quar	-10293
ähne	-10294
▁Krä	-10295
▁ped	-10296
appen	-10297
lings	-10298
rator	-10299
▁Expl	-10300
▁Gore	-10301
▁Klin	-10302
▁acqu	-10303
▁ausb	-10304
▁liqu	-10305
▁qual	-10306
▁ride	-10307
▁trop	-10308
porary	-10309
▁Could	-10310
▁Grand	-10311
▁beweg	-10312
▁maxim	-10313
▁silen	-10314
▁tumor	-10315
▁dunkle	-10316
▁fellow	-10317
▁geomet	-10318
▁junger	-10319
▁sauber	-10320
▁Risiken	-10321
▁Wissens	-10322
▁malaria	-10323
fähigkeit	-10324
▁Echtzeit	-10325
▁prepared	-10326
▁Geheimnis	-10327
▁digitalen	-10328
▁emissions	-10329
▁employees	-10330
▁lediglich	-10331
▁Australien	-10332
▁beinhaltet	-10333
▁gegenseitig	-10334
▁Zivilisation	-10335
▁internationalen	-10336
ky	-10337
hel	-10338
öss	-10339
airs	-10340
ehlt	-10341
illa	-10342
rict	-10343
▁Bem	-10344
▁Dat	-10345
▁Ehr	-10346
▁Mas	-10347
▁Sor	-10348
▁Sow	-10349
▁Tim	-10350
▁hey	-10351
▁que	-10352
inson	-10353
iogen	-10354
maßen	-10355
▁Früh	-10356
▁Inte	-10357
▁Mult	-10358
▁Paar	-10359
▁Wall	-10360
▁Zahn	-10361
▁lect	-10362
fernen	-10363
äusern	-10364
▁Brook	-10365
▁Hilfs	-10366
▁Letzt	-10367
▁Parte	-10368
▁added	-10369
anthrop	-10370
areness	-10371
dlichen	-10372
itarian	-10373
otherap	-10374
▁Blumen	-10375
▁Kriegs	-10376
▁Nieder	-10377
▁blauen	-10378
▁buying	-10379
▁credit	-10380
▁durchs	-10381
▁inevit	-10382
▁depends	-10383
▁encoura	-10384
▁rapidly	-10385
▁Existenz	-10386
▁Kongress	-10387
▁beweisen	-10388
▁epidemic	-10389
▁trillion	-10390
▁wertvoll	-10391
▁disappear	-10392
▁interests	-10393
▁definitely	-10394
▁überwinden	-10395
▁persönliche	-10396
▁politicians	-10397
▁mathematical	-10398
▁wirtschaftliche	-10399
abol	-10400
inte	-10401
netz	-10402
samm	-10403
ulin	-10404
äfte	-10405
▁Hir	-10406
antom	-10407
greif	-10408
schau	-10409
▁Ange	-10410
▁Bund	-10411
▁Jung	-10412
▁Tele	-10413
▁arts	-10414
▁cure	-10415
▁thro	-10416
indert	-10417
izienz	-10418
rieren	-10419
wachst	-10420
▁Schäd	-10421
▁Women	-10422
▁beach	-10423
▁doubt	-10424
▁reven	-10425
▁serve	-10426
▁steel	-10427
▁stehe	-10428
ierungs	-10429
wärmung	-10430
▁begren	-10431
▁contem	-10432
▁factor	-10433
▁remain	-10434
bination	-10435
▁Fahrrad	-10436
▁Geistes	-10437
▁Respekt	-10438
▁beinahe	-10439
▁impress	-10440
▁konstru	-10441
▁kriegen	-10442
▁primary	-10443
▁steuern	-10444
▁äußerst	-10445
abilities	-10446
besondere	-10447
▁Aufnahme	-10448
▁Bildungs	-10449
▁Lebenser	-10450
▁beispiel	-10451
▁besuchen	-10452
▁schätzen	-10453
▁verstehe	-10454
▁movements	-10455
▁vermeiden	-10456
▁healthcare	-10457
▁protection	-10458
▁verbessert	-10459
▁Erwachsenen	-10460
▁Wesentlichen	-10461
▁erstaunliche	-10462
▁menschlicher	-10463
-,	-10464
6.	-10465
Wow	-10466
hes	-10467
ült	-10468
adow	-10469
bage	-10470
bell	-10471
bers	-10472
foot	-10473
rans	-10474
rass	-10475
▁Yet	-10476
▁sau	-10477
gling	-10478
ibiot	-10479
itals	-10480
▁2008	-10481
▁Four	-10482
▁Prob	-10483
▁gang	-10484
▁höre	-10485
▁stir	-10486
▁unit	-10487
▁vent	-10488
ported	-10489
punkte	-10490
▁Brief	-10491
▁Pfund	-10492
▁Platt	-10493
▁Rechn	-10494
▁chart	-10495
▁drauf	-10496
▁navig	-10497
▁occup	-10498
▁risks	-10499
▁sides	-10500
▁sucht	-10501
quality	-10502
▁Handel	-10503
▁Normal	-10504
▁meinte	-10505
▁mirror	-10506
▁soviel	-10507
▁sparen	-10508
▁stattf	-10509
▁gefällt	-10510
▁lokalen	-10511
▁neurosc	-10512
▁promise	-10513
▁radical	-10514
▁regener	-10515
▁release	-10516
▁Zwischen	-10517
▁pleasure	-10518
▁generally	-10519
▁Depression	-10520
▁Diskussion	-10521
▁introduced	-10522
▁Kombination	-10523
▁evolutionary	-10524
70	-10525
not	-10526
ruh	-10527
uba	-10528
▁CD	-10529
ahen	-10530
nahm	-10531
ockt	-10532
what	-10533
▁GDP	-10534
▁Hen	-10535
▁Rom	-10536
▁sem	-10537
athan	-10538
boden	-10539
icing	-10540
level	-10541
nungs	-10542
opter	-10543
oting	-10544
ränkt	-10545
▁Dire	-10546
▁arab	-10547
▁atom	-10548
▁deta	-10549
▁irre	-10550
▁jüng	-10551
▁runs	-10552
imming	-10553
lösung	-10554
nehmer	-10555
▁Blatt	-10556
▁Damen	-10557
▁Jesus	-10558
▁Wieso	-10559
▁goods	-10560
▁horse	-10561
▁metal	-10562
▁refer	-10563
▁sweet	-10564
ermaßen	-10565
▁ausgew	-10566
▁bubble	-10567
▁compar	-10568
▁desire	-10569
▁potent	-10570
▁Erkrank	-10571
▁Komment	-10572
▁liefern	-10573
▁moderne	-10574
▁vergröß	-10575
▁überein	-10576
▁gefangen	-10577
▁kreieren	-10578
▁weiterer	-10579
▁Grundlage	-10580
▁Wohlstand	-10581
▁introduce	-10582
▁practical	-10583
▁radiation	-10584
▁wirkliche	-10585
▁Definition	-10586
▁discussion	-10587
▁psychology	-10588
▁Bedürfnisse	-10589
▁vorzustellen	-10590
Na	-10591
Man	-10592
bek	-10593
dre	-10594
eid	-10595
▁Po	-10596
mord	-10597
ränk	-10598
örer	-10599
▁Pet	-10600
▁Squ	-10601
▁biz	-10602
▁bow	-10603
▁dün	-10604
▁nor	-10605
▁rub	-10606
▁sta	-10607
▁wom	-10608
akers	-10609
weite	-10610
▁Allt	-10611
▁Cont	-10612
▁Hell	-10613
▁Weib	-10614
▁brit	-10615
▁seid	-10616
angers	-10617
gehend	-10618
icious	-10619
▁Gehen	-10620
▁claim	-10621
▁stock	-10622
▁übert	-10623
▁Brücke	-10624
▁Danach	-10625
▁Inspir	-10626
▁Mandel	-10627
▁Therap	-10628
▁besagt	-10629
▁medium	-10630
▁organs	-10631
▁talent	-10632
qualität	-10633
▁Einheit	-10634
▁attempt	-10635
▁Deswegen	-10636
▁affected	-10637
▁official	-10638
▁recorded	-10639
▁spectrum	-10640
▁Südafrika	-10641
▁invention	-10642
▁newspaper	-10643
▁Schauspiel	-10644
▁Aktivitäten	-10645
▁environments	-10646
nü	-10647
ati	-10648
hte	-10649
ups	-10650
▁85	-10651
läuf	-10652
umps	-10653
uses	-10654
▁Cra	-10655
▁Hem	-10656
▁Joe	-10657
▁Sir	-10658
▁asp	-10659
▁bag	-10660
▁ing	-10661
▁ums	-10662
ieben	-10663
illen	-10664
point	-10665
rimin	-10666
wagen	-10667
▁nett	-10668
▁shop	-10669
▁verg	-10670
▁wars	-10671
reffen	-10672
rücken	-10673
sprung	-10674
ternal	-10675
▁Bauch	-10676
▁Koran	-10677
▁input	-10678
▁skill	-10679
▁verab	-10680
prechen	-10681
rechend	-10682
▁August	-10683
▁Hunger	-10684
▁Russia	-10685
▁assign	-10686
▁eingel	-10687
▁former	-10688
▁gelebt	-10689
▁refuge	-10690
▁singen	-10691
▁stream	-10692
▁Pacific	-10693
▁applied	-10694
▁dropped	-10695
▁gravity	-10696
▁proport	-10697
▁replace	-10698
▁singing	-10699
▁vehicles	-10700
▁Erfindung	-10701
▁Philosoph	-10702
▁besondere	-10703
▁dinosaurs	-10704
▁encounter	-10705
▁entfernen	-10706
▁typically	-10707
▁gemeinsame	-10708
▁techniques	-10709
▁übernehmen	-10710
▁beschrieben	-10711
▁Persönlichkeit	-10712
wen	-10713
äub	-10714
▁28	-10715
▁MT	-10716
okus	-10717
ugel	-10718
▁wra	-10719
iveau	-10720
orous	-10721
ratch	-10722
usual	-10723
▁Tief	-10724
▁clim	-10725
▁fern	-10726
▁firm	-10727
▁rote	-10728
▁soft	-10729
▁tats	-10730
fected	-10731
haften	-10732
illing	-10733
▁Kenia	-10734
▁Weihn	-10735
▁aging	-10736
▁armen	-10737
▁atoms	-10738
▁chron	-10739
▁fährt	-10740
▁ought	-10741
endence	-10742
igungen	-10743
▁Kirche	-10744
▁Mengen	-10745
▁Sprach	-10746
▁bauten	-10747
▁detect	-10748
▁replic	-10749
▁verblü	-10750
▁Absicht	-10751
▁Taliban	-10752
▁details	-10753
▁electro	-10754
▁engaged	-10755
▁erhöhen	-10756
▁grundle	-10757
▁mistake	-10758
▁Nachhalt	-10759
▁Spektrum	-10760
▁bemerken	-10761
▁birthday	-10762
▁ähnliche	-10763
leistungen	-10764
▁dieselben	-10765
▁eindeutig	-10766
▁gegründet	-10767
▁molecular	-10768
▁mountains	-10769
▁überrasch	-10770
▁Instrument	-10771
▁algorithms	-10772
▁components	-10773
▁fasziniert	-10774
▁Sicherheits	-10775
▁geschlossen	-10776
▁großartigen	-10777
▁funktionierte	-10778
▁technological	-10779
mü	-10780
va	-10781
ppy	-10782
umn	-10783
▁Tö	-10784
arre	-10785
ense	-10786
ombe	-10787
ulse	-10788
▁Boy	-10789
▁Rio	-10790
▁mat	-10791
agram	-10792
ielle	-10793
obile	-10794
utete	-10795
▁Jose	-10796
▁Kenn	-10797
▁bare	-10798
▁clip	-10799
▁iPod	-10800
▁peak	-10801
▁shut	-10802
▁tick	-10803
▁wine	-10804
ueller	-10805
urance	-10806
▁3,000	-10807
▁Kabel	-10808
▁Küste	-10809
▁Phase	-10810
▁Scott	-10811
▁estim	-10812
▁innen	-10813
▁obser	-10814
▁staff	-10815
gruppen	-10816
stoffen	-10817
▁Gottes	-10818
▁Symmet	-10819
▁assist	-10820
▁battle	-10821
▁bietet	-10822
▁church	-10823
▁hoping	-10824
▁lachen	-10825
▁pulled	-10826
▁regard	-10827
▁season	-10828
▁worlds	-10829
putation	-10830
▁Bestand	-10831
▁Richtig	-10832
▁Schicks	-10833
▁berühmt	-10834
▁centers	-10835
▁erhielt	-10836
▁factors	-10837
▁however	-10838
▁kitchen	-10839
▁lessons	-10840
▁opinion	-10841
ologische	-10842
▁Diagramm	-10843
▁Schritte	-10844
▁Vorteile	-10845
▁dahinter	-10846
▁Allgemein	-10847
▁Interview	-10848
▁erweitern	-10849
▁gebraucht	-10850
▁neighbors	-10851
▁perception	-10852
▁veränderte	-10853
▁Chemikalien	-10854
▁Statistiken	-10855
▁combination	-10856
▁internationale	-10857
BM	-10858
pa	-10859
rey	-10860
sey	-10861
örm	-10862
▁Ky	-10863
alte	-10864
grad	-10865
ikes	-10866
kins	-10867
oved	-10868
rüst	-10869
west	-10870
▁Imp	-10871
▁Seh	-10872
▁adj	-10873
anned	-10874
nchen	-10875
ätter	-10876
▁beiz	-10877
▁eggs	-10878
▁gere	-10879
▁länd	-10880
▁5,000	-10881
▁Wagen	-10882
▁baute	-10883
▁goals	-10884
▁imple	-10885
▁inher	-10886
▁notes	-10887
▁prime	-10888
▁theme	-10889
▁topic	-10890
▁traum	-10891
▁unbek	-10892
forscht	-10893
örungen	-10894
▁Howard	-10895
▁Laptop	-10896
▁Ozeane	-10897
▁aftern	-10898
▁furcht	-10899
▁height	-10900
▁liquid	-10901
▁robust	-10902
▁rocket	-10903
▁senses	-10904
elescope	-10905
lerweile	-10906
pflanzen	-10907
▁Afrikas	-10908
▁Bibliot	-10909
▁Momente	-10910
▁Signale	-10911
▁Viertel	-10912
▁Wechsel	-10913
▁chicken	-10914
▁include	-10915
▁nachden	-10916
▁verring	-10917
▁Business	-10918
▁disaster	-10919
▁elektron	-10920
▁konfront	-10921
▁occurred	-10922
▁speziell	-10923
ologischen	-10924
▁Gegenwart	-10925
▁worldwide	-10926
▁efficiency	-10927
▁foundation	-10928
▁Stattdessen	-10929
▁akzeptieren	-10930
▁Unterhaltung	-10931
▁gesellschaft	-10932
▁collaboration	-10933
aj	-10934
vi	-10935
▁x	-10936
önt	-10937
anes	-10938
ifth	-10939
igma	-10940
äden	-10941
▁Brü	-10942
▁Lou	-10943
▁Hill	-10944
▁Merk	-10945
▁froh	-10946
▁genü	-10947
▁hits	-10948
▁soul	-10949
estyle	-10950
hängen	-10951
▁Folie	-10952
▁Poten	-10953
▁Power	-10954
▁Since	-10955
▁Wüste	-10956
▁Zerst	-10957
▁dedic	-10958
▁embar	-10959
▁keeps	-10960
▁toler	-10961
▁Führer	-10962
▁Privat	-10963
▁acting	-10964
▁belieb	-10965
▁blocks	-10966
▁cortex	-10967
▁driven	-10968
▁kümmer	-10969
▁willst	-10970
ikations	-10971
▁Gebiete	-10972
▁accompl	-10973
▁ansieht	-10974
▁besitzt	-10975
▁courage	-10976
▁glaubte	-10977
▁manchen	-10978
▁reached	-10979
▁Betracht	-10980
▁Herstell	-10981
▁Mehrheit	-10982
▁Metapher	-10983
▁Ungleich	-10984
▁Zunächst	-10985
▁darunter	-10986
▁folgende	-10987
▁gefallen	-10988
▁mistakes	-10989
▁ultimate	-10990
▁vertraut	-10991
▁Überzeug	-10992
▁activities	-10993
▁Einstellung	-10994
▁dargestellt	-10995
▁schwieriger	-10996
▁sophisticated	-10997
▁beispielsweise	-10998
any	-10999
opy	-11000
▁PC	-11001
▁Ve	-11002
burg	-11003
etik	-11004
gely	-11005
half	-11006
igem	-11007
utze	-11008
▁wüs	-11009
acken	-11010
adium	-11011
alled	-11012
füllt	-11013
hrase	-11014
ician	-11015
iring	-11016
räume	-11017
▁Penn	-11018
▁disp	-11019
▁fürs	-11020
▁quad	-11021
▁zoom	-11022
ateful	-11023
forest	-11024
mented	-11025
▁Darum	-11026
▁Inner	-11027
▁Motiv	-11028
▁Other	-11029
▁Stahl	-11030
▁jener	-11031
▁sight	-11032
▁surve	-11033
ishment	-11034
▁Epidem	-11035
▁Fabrik	-11036
▁Tonnen	-11037
▁ingred	-11038
▁portra	-11039
▁satisf	-11040
▁studio	-11041
▁thanks	-11042
▁ungehe	-11043
gehalten	-11044
schlagen	-11045
▁Central	-11046
▁Lektion	-11047
▁Wirkung	-11048
▁feature	-11049
▁figures	-11050
▁operate	-11051
▁quantum	-11052
▁unusual	-11053
losigkeit	-11054
schriften	-11055
stitution	-11056
▁digitale	-11057
▁features	-11058
▁memories	-11059
▁mögliche	-11060
▁sichtbar	-11061
ikanischen	-11062
▁naturally	-11063
▁traveling	-11064
▁verwandelt	-11065
▁aufgewachsen	-11066
DA	-11067
lyn	-11068
see	-11069
▁33	-11070
▁RB	-11071
aven	-11072
cons	-11073
ehrt	-11074
fert	-11075
sper	-11076
uits	-11077
▁Pen	-11078
▁dot	-11079
burgh	-11080
konom	-11081
lager	-11082
oking	-11083
stron	-11084
▁Ford	-11085
▁Laut	-11086
▁Weiß	-11087
▁heil	-11088
▁lift	-11089
System	-11090
ammelt	-11091
bereit	-11092
elling	-11093
iraten	-11094
plätze	-11095
ruppen	-11096
unkten	-11097
▁Erinn	-11098
▁Rhyth	-11099
▁Würde	-11100
▁mosqu	-11101
▁piano	-11102
▁pregn	-11103
erstand	-11104
steller	-11105
▁France	-11106
▁Kompon	-11107
▁Löcher	-11108
▁Unfall	-11109
▁elimin	-11110
▁golden	-11111
▁realen	-11112
ierungen	-11113
scheidet	-11114
▁burning	-11115
▁cooking	-11116
▁enthält	-11117
▁gewählt	-11118
▁musical	-11119
▁encourage	-11120
▁kostenlos	-11121
▁terrorism	-11122
▁angenommen	-11123
▁bezeichnen	-11124
▁automatisch	-11125
▁destruction	-11126
▁photographs	-11127
▁afrikanischen	-11128
▁unglaublichen	-11129
bir	-11130
ema	-11131
▁3,	-11132
ania	-11133
gibt	-11134
mack	-11135
▁FBI	-11136
▁ere	-11137
belie	-11138
cling	-11139
daten	-11140
fense	-11141
räger	-11142
umble	-11143
vable	-11144
üssen	-11145
▁arme	-11146
▁club	-11147
▁pump	-11148
▁sees	-11149
bücher	-11150
igungs	-11151
kelett	-11152
unting	-11153
▁Einen	-11154
▁Erdbe	-11155
▁Hunde	-11156
▁Space	-11157
▁blaue	-11158
▁sowas	-11159
▁storm	-11160
▁wofür	-11161
▁Dunkel	-11162
▁Kanada	-11163
▁Nobody	-11164
▁Sobald	-11165
▁anfing	-11166
▁patent	-11167
▁solved	-11168
bewegung	-11169
▁Hindern	-11170
▁Molekül	-11171
▁actions	-11172
▁convent	-11173
▁dauerte	-11174
▁silence	-11175
▁zeigten	-11176
verhalten	-11177
▁afternoon	-11178
▁marketing	-11179
erechtigkeit	-11180
▁Terrorismus	-11181
▁Fortschritte	-11182
▁Innovationen	-11183
Ex	-11184
ima	-11185
oto	-11186
▁ok	-11187
erte	-11188
iler	-11189
kind	-11190
leib	-11191
ocal	-11192
▁Cop	-11193
▁Fal	-11194
▁Hon	-11195
▁Sup	-11196
▁mad	-11197
eding	-11198
igare	-11199
scale	-11200
▁Dazu	-11201
▁Josh	-11202
▁Mama	-11203
▁Nase	-11204
▁load	-11205
▁silk	-11206
▁trig	-11207
apital	-11208
leitet	-11209
umines	-11210
▁Gemäl	-11211
▁Immer	-11212
▁gewöh	-11213
▁staat	-11214
▁ultra	-11215
▁Anwend	-11216
▁Eigent	-11217
▁Flücht	-11218
▁Mittag	-11219
▁drives	-11220
▁fingen	-11221
▁fisher	-11222
▁formed	-11223
▁hinauf	-11224
▁orange	-11225
▁scared	-11226
▁senden	-11227
▁amounts	-11228
▁führten	-11229
▁records	-11230
▁suppose	-11231
▁unglück	-11232
▁unteren	-11233
▁witness	-11234
▁Russland	-11235
▁Webseite	-11236
▁falschen	-11237
▁leichter	-11238
▁proteins	-11239
▁verdient	-11240
▁zeichnen	-11241
▁Billionen	-11242
▁Gesichter	-11243
▁Kontinent	-11244
▁Marketing	-11245
▁ancestors	-11246
▁bekannten	-11247
▁beobachte	-11248
▁embarrass	-11249
▁pollution	-11250
▁meaningful	-11251
▁personally	-11252
▁Jahrzehnten	-11253
▁participate	-11254
▁überraschend	-11255
▁fundamentally	-11256
▁grundsätzlich	-11257
▁manufacturing	-11258
Al	-11259
üf	-11260
hnt	-11261
▁sä	-11262
ency	-11263
etch	-11264
oted	-11265
ouds	-11266
ätzt	-11267
▁Dep	-11268
▁lon	-11269
build	-11270
chest	-11271
menge	-11272
ogram	-11273
opard	-11274
reibe	-11275
unate	-11276
▁Back	-11277
▁Leon	-11278
▁Vort	-11279
▁bell	-11280
▁dogs	-11281
▁joke	-11282
▁Diagn	-11283
▁Ohren	-11284
▁Zweif	-11285
▁polar	-11286
▁tests	-11287
▁änder	-11288
zwungen	-11289
▁Lungen	-11290
▁bestät	-11291
▁survey	-11292
underten	-11293
▁Perhaps	-11294
▁forests	-11295
▁nowhere	-11296
▁visible	-11297
▁Ereignis	-11298
▁Resultat	-11299
▁abstract	-11300
▁dramatic	-11301
▁hinunter	-11302
▁perfekte	-11303
▁verstand	-11304
▁Elefanten	-11305
▁Literatur	-11306
▁Wachstums	-11307
▁awareness	-11308
▁computing	-11309
▁framework	-11310
▁mechanism	-11311
▁schwarzen	-11312
▁überlegen	-11313
▁Regierungs	-11314
▁percentage	-11315
▁processing	-11316
▁gemeinsamen	-11317
▁Präsentation	-11318
▁presentation	-11319
▁verschwunden	-11320
▁Gerechtigkeit	-11321
▁circumstances	-11322
▁psychological	-11323
▁transportation	-11324
CA	-11325
rin	-11326
▁36	-11327
coln	-11328
zipl	-11329
acles	-11330
elson	-11331
gence	-11332
iders	-11333
zepte	-11334
▁1000	-11335
▁2005	-11336
▁Chef	-11337
▁brut	-11338
▁fake	-11339
▁hook	-11340
▁rout	-11341
iertes	-11342
osphor	-11343
quelle	-11344
▁House	-11345
▁Räume	-11346
▁Trick	-11347
▁breit	-11348
▁films	-11349
▁leist	-11350
▁pharm	-11351
▁roads	-11352
▁schwe	-11353
prozess	-11354
▁Neurow	-11355
▁laptop	-11356
▁neuron	-11357
▁option	-11358
▁reisen	-11359
▁verknü	-11360
▁weißen	-11361
▁ökonom	-11362
vermögen	-11363
▁Verwand	-11364
▁Vorhers	-11365
▁Zeitung	-11366
▁glamour	-11367
▁herausf	-11368
▁outcome	-11369
▁tonight	-11370
▁trinken	-11371
▁zweimal	-11372
astrophen	-11373
probieren	-11374
▁Geschenk	-11375
▁bemerkte	-11376
▁required	-11377
▁schlafen	-11378
▁sunlight	-11379
▁Angestell	-11380
▁Geräusche	-11381
▁behaupten	-11382
▁increased	-11383
▁operation	-11384
▁scheinbar	-11385
▁zufrieden	-11386
▁literature	-11387
▁Stammzellen	-11388
▁conservation	-11389
▁menschliches	-11390
▁organisieren	-11391
▁Nachhaltigkeit	-11392
yd	-11393
ato	-11394
beg	-11395
cal	-11396
mot	-11397
osn	-11398
cers	-11399
lief	-11400
very	-11401
▁Alt	-11402
▁DNS	-11403
▁Okt	-11404
▁Son	-11405
▁Wil	-11406
ettet	-11407
itors	-11408
polit	-11409
sters	-11410
▁2010	-11411
▁Coll	-11412
▁Come	-11413
▁Eier	-11414
▁Five	-11415
▁Ohne	-11416
▁baut	-11417
▁flew	-11418
▁tape	-11419
aptops	-11420
friend	-11421
recken	-11422
reiche	-11423
▁Bronx	-11424
▁Stern	-11425
▁cyber	-11426
▁false	-11427
▁humor	-11428
▁repar	-11429
▁score	-11430
▁shame	-11431
▁split	-11432
▁städt	-11433
▁taste	-11434
▁wisst	-11435
inction	-11436
ription	-11437
ultural	-11438
▁Budget	-11439
▁extens	-11440
▁grünen	-11441
▁landen	-11442
ktivität	-11443
leistung	-11444
▁Chancen	-11445
▁Nutzung	-11446
▁bekomme	-11447
▁clothes	-11448
▁diction	-11449
▁drücken	-11450
▁erkannt	-11451
▁largely	-11452
▁solange	-11453
▁tatsäch	-11454
▁Teenager	-11455
▁Versuche	-11456
▁concrete	-11457
▁creature	-11458
▁internal	-11459
▁springen	-11460
oberfläche	-11461
▁betreiben	-11462
▁erwachsen	-11463
▁gebrochen	-11464
▁providing	-11465
▁versteckt	-11466
▁vertrauen	-11467
▁Geburtstag	-11468
▁beibringen	-11469
▁conclusion	-11470
▁democratic	-11471
▁productive	-11472
▁speziellen	-11473
▁Darstellung	-11474
▁durchführen	-11475
▁Untersuchung	-11476
▁applications	-11477
▁unterrichten	-11478
▁Unfortunately	-11479
▁sustainability	-11480
▁:	-11481
las	-11482
rog	-11483
urr	-11484
adic	-11485
atar	-11486
erer	-11487
keys	-11488
ords	-11489
▁bug	-11490
▁kop	-11491
▁spo	-11492
ittel	-11493
iture	-11494
▁Cart	-11495
▁Play	-11496
▁Vari	-11497
▁Voll	-11498
▁cast	-11499
▁hang	-11500
▁horm	-11501
▁kalt	-11502
▁lens	-11503
▁loud	-11504
ducing	-11505
gesamt	-11506
opping	-11507
▁Dafür	-11508
▁Eisen	-11509
▁Henry	-11510
▁Initi	-11511
▁River	-11512
▁Spann	-11513
▁curve	-11514
▁habit	-11515
▁trend	-11516
stimmen	-11517
▁Märkte	-11518
▁Status	-11519
▁Strand	-11520
▁Versch	-11521
▁achten	-11522
▁advice	-11523
▁anhand	-11524
▁critic	-11525
▁flower	-11526
▁trafen	-11527
▁whales	-11528
▁worauf	-11529
aneously	-11530
material	-11531
sprechen	-11532
▁Anstatt	-11533
▁Schaden	-11534
▁Sternen	-11535
▁defined	-11536
▁falling	-11537
▁therapy	-11538
arbeitung	-11539
▁besseres	-11540
▁existing	-11541
▁geholfen	-11542
▁infected	-11543
▁presence	-11544
▁released	-11545
▁threaten	-11546
▁tracking	-11547
▁collected	-11548
▁hospitals	-11549
▁narrative	-11550
▁schwimmen	-11551
▁teilweise	-11552
bevölkerung	-11553
▁physically	-11554
▁sogenannte	-11555
▁appropriate	-11556
▁inspiration	-11557
▁Vorstellungen	-11558
My	-11559
ini	-11560
isl	-11561
kor	-11562
ora	-11563
Amer	-11564
ihad	-11565
izza	-11566
whel	-11567
▁Ray	-11568
▁Sud	-11569
▁toy	-11570
oring	-11571
ormen	-11572
preis	-11573
▁2007	-11574
▁Flie	-11575
▁Gute	-11576
▁Kart	-11577
▁Sant	-11578
▁Send	-11579
▁bicy	-11580
▁furn	-11581
▁grad	-11582
▁hind	-11583
▁milk	-11584
▁plot	-11585
Dollar	-11586
igsten	-11587
iosity	-11588
▁Chaos	-11589
▁Hallo	-11590
▁Saudi	-11591
▁Shang	-11592
▁Teles	-11593
▁White	-11594
▁Woman	-11595
▁immen	-11596
▁lying	-11597
▁proto	-11598
▁resil	-11599
▁ridic	-11600
▁upper	-11601
▁voran	-11602
ahnsinn	-11603
ategien	-11604
chester	-11605
sterben	-11606
▁Abfall	-11607
▁Rechts	-11608
▁Zufall	-11609
▁advent	-11610
▁dunkel	-11611
▁grosse	-11612
▁vieles	-11613
▁Johnson	-11614
▁closely	-11615
▁discipl	-11616
▁einiges	-11617
▁empathy	-11618
▁fingers	-11619
▁flowers	-11620
▁hielten	-11621
▁quarter	-11622
▁Bevölker	-11623
▁Erlebnis	-11624
▁accurate	-11625
▁transfer	-11626
▁villages	-11627
▁berichten	-11628
▁enthalten	-11629
▁gentlemen	-11630
▁protected	-11631
▁Restaurant	-11632
▁Wettbewerb	-11633
▁bezeichnet	-11634
▁moralische	-11635
▁surrounded	-11636
▁explanation	-11637
▁nachgedacht	-11638
▁potentially	-11639
▁irgendjemand	-11640
▁konzentriert	-11641
wissenschaften	-11642
▁medizinischen	-11643
wä	-11644
Ein	-11645
erie	-11646
umer	-11647
▁Hol	-11648
▁Jun	-11649
▁anb	-11650
▁mur	-11651
anche	-11652
linie	-11653
okuss	-11654
retch	-11655
telef	-11656
uther	-11657
▁2050	-11658
▁Cons	-11659
▁Ehem	-11660
▁June	-11661
▁Mosk	-11662
▁Myth	-11663
▁ausw	-11664
▁dens	-11665
▁diam	-11666
▁ears	-11667
▁elev	-11668
▁fein	-11669
▁lebe	-11670
athers	-11671
karten	-11672
ündung	-11673
▁Bevor	-11674
▁Sympt	-11675
▁While	-11676
▁adopt	-11677
▁chose	-11678
▁geste	-11679
▁inten	-11680
▁umher	-11681
▁verhe	-11682
ließend	-11683
▁Mangel	-11684
▁Nelson	-11685
▁Pflege	-11686
▁Welten	-11687
▁border	-11688
▁boring	-11689
▁deaths	-11690
▁handle	-11691
▁lokale	-11692
▁papers	-11693
▁Gericht	-11694
▁Lincoln	-11695
▁circuit	-11696
▁decline	-11697
▁fishing	-11698
▁frequen	-11699
▁instrum	-11700
▁reverse	-11701
▁treiben	-11702
▁unknown	-11703
▁Gesichts	-11704
▁administ	-11705
▁anschaut	-11706
▁combined	-11707
▁horrible	-11708
▁physikal	-11709
▁subjects	-11710
▁wireless	-11711
▁Computern	-11712
▁Computers	-11713
▁algorithm	-11714
▁darstellt	-11715
▁ernsthaft	-11716
▁komplexen	-11717
▁permanent	-11718
▁Gedächtnis	-11719
▁Jahrzehnte	-11720
▁Unterricht	-11721
▁economists	-11722
▁electronic	-11723
▁Schließlich	-11724
▁bemerkenswert	-11725
▁Gemeinschaften	-11726
li	-11727
kul	-11728
▁Kh	-11729
▁LG	-11730
▁Üb	-11731
förm	-11732
jahr	-11733
wald	-11734
zykl	-11735
▁Ann	-11736
▁Ost	-11737
▁Sec	-11738
▁mig	-11739
ahara	-11740
ahnen	-11741
erien	-11742
esome	-11743
rücke	-11744
▁Abra	-11745
▁Time	-11746
▁Tony	-11747
▁Vent	-11748
▁cave	-11749
▁frem	-11750
▁gras	-11751
▁heim	-11752
▁merk	-11753
ansion	-11754
schiff	-11755
zeigen	-11756
ätzung	-11757
▁Liber	-11758
▁Magie	-11759
▁Noten	-11760
▁Optim	-11761
▁Samen	-11762
▁clock	-11763
▁enden	-11764
▁günst	-11765
▁legit	-11766
▁renew	-11767
▁songs	-11768
identen	-11769
▁Alters	-11770
▁Newton	-11771
▁Square	-11772
▁Studio	-11773
▁clouds	-11774
▁europä	-11775
▁hängen	-11776
▁merken	-11777
▁pollen	-11778
▁script	-11779
▁spüren	-11780
▁tiefer	-11781
▁wirken	-11782
wachstum	-11783
▁Kapitel	-11784
▁aufgere	-11785
▁gekauft	-11786
▁kreativ	-11787
▁weshalb	-11788
scheinend	-11789
▁Argument	-11790
▁Regionen	-11791
▁allowing	-11792
▁collapse	-11793
▁constant	-11794
▁overwhel	-11795
▁somewhat	-11796
▁stronger	-11797
▁Alexander	-11798
▁Something	-11799
▁Verstehen	-11800
▁betroffen	-11801
▁explained	-11802
▁functions	-11803
▁langsamer	-11804
▁Frankreich	-11805
▁antwortete	-11806
▁underwater	-11807
▁verglichen	-11808
ffe	-11809
▁55	-11810
▁Up	-11811
iene	-11812
ocol	-11813
▁Dör	-11814
▁Lam	-11815
▁Mor	-11816
▁Nam	-11817
▁Ruf	-11818
▁Sus	-11819
▁Ter	-11820
chnik	-11821
tritt	-11822
▁Only	-11823
▁bike	-11824
▁item	-11825
▁sets	-11826
▁thin	-11827
fangen	-11828
kräfte	-11829
making	-11830
modell	-11831
profit	-11832
▁Brian	-11833
▁Fokus	-11834
▁Klein	-11835
▁embed	-11836
▁frank	-11837
▁weiße	-11838
etische	-11839
schicht	-11840
▁Detail	-11841
▁Presse	-11842
▁Skulpt	-11843
▁erhöht	-11844
▁filter	-11845
▁heilen	-11846
▁hörten	-11847
▁monkey	-11848
▁wander	-11849
▁Aussage	-11850
▁Gemälde	-11851
▁Musiker	-11852
▁corresp	-11853
▁evening	-11854
▁fluores	-11855
▁starben	-11856
▁Mikroben	-11857
▁election	-11858
▁schreibt	-11859
▁unmittel	-11860
▁Christmas	-11861
▁Programme	-11862
▁Schicksal	-11863
▁derselben	-11864
▁folgenden	-11865
▁sensitive	-11866
▁spiritual	-11867
▁Prinzipien	-11868
▁controlled	-11869
▁laboratory	-11870
▁weltweiten	-11871
▁wenigstens	-11872
▁Ausstellung	-11873
▁Inspiration	-11874
▁challenging	-11875
▁instruments	-11876
geschwindigkeit	-11877
MM	-11878
agh	-11879
kom	-11880
▁DV	-11881
▁Vi	-11882
..."	-11883
Yeah	-11884
vely	-11885
▁Dig	-11886
▁Jon	-11887
▁Out	-11888
▁ack	-11889
▁gre	-11890
child	-11891
clear	-11892
iking	-11893
ismen	-11894
kehrt	-11895
onien	-11896
stieg	-11897
veled	-11898
▁Eric	-11899
▁grat	-11900
▁hieß	-11901
▁impl	-11902
▁outc	-11903
astern	-11904
mechan	-11905
muster	-11906
werken	-11907
▁1.000	-11908
▁Arist	-11909
▁Feind	-11910
▁Flüss	-11911
▁angel	-11912
▁angem	-11913
▁anget	-11914
▁beige	-11915
▁bones	-11916
▁brill	-11917
▁depth	-11918
▁error	-11919
▁prize	-11920
▁stone	-11921
einhalb	-11922
▁Anders	-11923
▁Bundes	-11924
▁Kindes	-11925
▁freien	-11926
▁stayed	-11927
▁volume	-11928
funktion	-11929
ieinhalb	-11930
▁100.000	-11931
▁Führung	-11932
▁Silicon	-11933
▁combine	-11934
▁doppelt	-11935
▁remains	-11936
▁respekt	-11937
▁verlang	-11938
▁Anführer	-11939
▁Kampagne	-11940
▁Kleidung	-11941
▁Proteine	-11942
▁Shanghai	-11943
▁besessen	-11944
▁contrast	-11945
▁genügend	-11946
▁measured	-11947
▁provided	-11948
▁Aufnahmen	-11949
▁Basically	-11950
▁authority	-11951
▁basierend	-11952
▁betrieben	-11953
▁bezüglich	-11954
▁einfaches	-11955
unternehmen	-11956
▁Ereignisse	-11957
▁irgendeine	-11958
▁exploration	-11959
▁grundlegend	-11960
Wo	-11961
xid	-11962
▁Lu	-11963
▁SW	-11964
alys	-11965
ehre	-11966
frau	-11967
gent	-11968
icit	-11969
park	-11970
wing	-11971
▁Ban	-11972
▁Box	-11973
▁Hat	-11974
▁Moo	-11975
▁Moz	-11976
gende	-11977
▁Feyn	-11978
▁Gibt	-11979
▁Klav	-11980
▁disg	-11981
▁melt	-11982
▁mile	-11983
▁pill	-11984
▁suic	-11985
▁tack	-11986
istics	-11987
ktions	-11988
phones	-11989
usions	-11990
▁Angeb	-11991
▁Armee	-11992
▁Dynam	-11993
▁Lasst	-11994
▁Media	-11995
▁fehlt	-11996
▁logic	-11997
▁weigh	-11998
▁whist	-11999
▁woran	-12000
antasie	-12001
plicity	-12002
rüstung	-12003
▁Besuch	-12004
▁Fläche	-12005
▁Please	-12006
▁Säuget	-12007
▁Willen	-12008
▁Zauber	-12009
▁ausger	-12010
▁autism	-12011
▁button	-12012
▁deploy	-12013
▁desper	-12014
▁intent	-12015
▁remove	-12016
▁transc	-12017
onnected	-12018
tausende	-12019
▁Annahme	-12020
▁bestand	-12021
▁metabol	-12022
▁mosquit	-12023
▁vaccine	-12024
▁Research	-12025
▁paradigm	-12026
▁wondered	-12027
▁zurückzu	-12028
▁Potenzial	-12029
▁Spielzeug	-12030
▁construct	-12031
▁reference	-12032
▁statement	-12033
▁technique	-12034
▁telephone	-12035
▁Instrumente	-12036
▁transformed	-12037
▁Konsequenzen	-12038
▁Lebenserwart	-12039
Se	-12040
Sp	-12041
äu	-12042
ixt	-12043
rid	-12044
▁Ep	-12045
▁JH	-12046
▁ew	-12047
▁lö	-12048
greg	-12049
holz	-12050
hour	-12051
lass	-12052
rier	-12053
rors	-12054
▁350	-12055
▁dok	-12056
barer	-12057
being	-12058
halts	-12059
overn	-12060
weich	-12061
▁Serv	-12062
▁Weis	-12063
▁obst	-12064
▁stri	-12065
▁vibr	-12066
▁wash	-12067
sunami	-12068
▁Beute	-12069
▁Kurve	-12070
▁dress	-12071
▁grain	-12072
▁plate	-12073
▁rooms	-12074
▁skept	-12075
▁thick	-12076
▁wovon	-12077
▁Schach	-12078
▁Stücke	-12079
▁Symbol	-12080
▁absorb	-12081
▁nervös	-12082
▁relate	-12083
▁unlike	-12084
icherung	-12085
ographer	-12086
▁Debatte	-12087
▁Kameras	-12088
▁Mandela	-12089
▁besorgt	-12090
▁command	-12091
▁comment	-12092
▁offenen	-12093
▁options	-12094
▁regions	-12095
▁stoppen	-12096
▁traurig	-12097
▁Hunderte	-12098
▁Schweden	-12099
▁Transpar	-12100
▁director	-12101
▁dokument	-12102
▁genießen	-12103
▁synchron	-12104
▁umfassen	-12105
schmutzung	-12106
ussendlich	-12107
▁continued	-12108
▁irgendwel	-12109
▁versorgen	-12110
▁Entfernung	-12111
▁eingeladen	-12112
▁Algorithmen	-12113
▁Dimensionen	-12114
▁Sonnenlicht	-12115
▁voneinander	-12116
▁überraschen	-12117
▁Sonnensystem	-12118
▁kontrolliert	-12119
For	-12120
brü	-12121
bern	-12122
hips	-12123
ibel	-12124
oned	-12125
onna	-12126
pern	-12127
ziel	-12128
▁20,	-12129
▁Ten	-12130
▁anx	-12131
▁god	-12132
▁odd	-12133
aktor	-12134
ansas	-12135
fällt	-12136
gespr	-12137
ignet	-12138
läuft	-12139
uting	-12140
▁Acht	-12141
▁Akte	-12142
▁Bell	-12143
▁Gulf	-12144
▁Mamm	-12145
▁News	-12146
▁Rick	-12147
▁busy	-12148
▁icon	-12149
▁seht	-12150
▁vere	-12151
▁verz	-12152
dienst	-12153
ilosop	-12154
unklen	-12155
▁Brown	-12156
▁Detro	-12157
▁Toten	-12158
▁Wegen	-12159
▁Wicht	-12160
▁bedro	-12161
▁cents	-12162
▁expon	-12163
▁memor	-12164
▁platz	-12165
▁woher	-12166
esented	-12167
ältigen	-12168
örtlich	-12169
▁Berlin	-12170
▁Darauf	-12171
▁Flügel	-12172
▁Grippe	-12173
▁Schnee	-12174
▁involv	-12175
▁nachts	-12176
▁spider	-12177
▁suchte	-12178
▁suffer	-12179
▁überqu	-12180
bekommen	-12181
▁Feynman	-12182
▁Gedicht	-12183
▁Indones	-12184
▁Meister	-12185
▁Redwood	-12186
▁classes	-12187
▁ergeben	-12188
▁neugier	-12189
▁samples	-12190
sichtlich	-12191
▁lebendig	-12192
▁schauten	-12193
idimension	-12194
▁aufgeregt	-12195
▁bedeutete	-12196
▁beteiligt	-12197
▁definiert	-12198
▁folgendes	-12199
▁footprint	-12200
▁umzugehen	-12201
▁Sichtweise	-12202
▁ausgesetzt	-12203
▁passionate	-12204
▁transplant	-12205
▁unexpected	-12206
▁Psychologie	-12207
▁biologische	-12208
▁vergangenen	-12209
▁implications	-12210
▁Überraschung	-12211
▁conversations	-12212
▁veröffentlich	-12213
je	-12214
reh	-12215
zig	-12216
ölk	-12217
üse	-12218
▁ED	-12219
▁SS	-12220
aufs	-12221
east	-12222
gren	-12223
ooth	-12224
reht	-12225
rise	-12226
▁Jud	-12227
▁Leg	-12228
▁Lib	-12229
▁Wär	-12230
acing	-12231
force	-12232
ipfel	-12233
▁Benj	-12234
▁Biom	-12235
▁Ment	-12236
▁Stäm	-12237
▁army	-12238
▁imit	-12239
▁mush	-12240
▁nose	-12241
▁pink	-12242
asters	-12243
winkel	-12244
▁About	-12245
▁Decke	-12246
▁Rwand	-12247
▁Story	-12248
▁bombs	-12249
▁shell	-12250
▁stere	-12251
▁uncom	-12252
aughing	-12253
fliegen	-12254
▁Handys	-12255
▁deiner	-12256
▁depend	-12257
▁dienen	-12258
▁gelang	-12259
▁joined	-12260
▁linked	-12261
▁prepar	-12262
▁repair	-12263
▁sphere	-12264
▁stands	-12265
olumines	-12266
▁Krieges	-12267
▁Spezial	-12268
▁anzusch	-12269
▁attacks	-12270
▁beenden	-12271
▁beliebt	-12272
▁embrace	-12273
▁equally	-12274
▁offered	-12275
▁robotic	-12276
▁verstär	-12277
erkennung	-12278
▁Freiwill	-12279
▁Zeitraum	-12280
▁begegnen	-12281
▁drinking	-12282
▁gewisser	-12283
▁microbes	-12284
▁swimming	-12285
▁wechseln	-12286
▁arguments	-12287
▁centuries	-12288
▁intellekt	-12289
▁unterwegs	-12290
legenheiten	-12291
▁Richtungen	-12292
▁Zerstörung	-12293
▁appreciate	-12294
▁confidence	-12295
▁Verbreitung	-12296
▁Entdeckungen	-12297
wahrscheinlich	-12298
▁Klassenzimmer	-12299
▁veröffentlichen	-12300
kö	-12301
zur	-12302
▁Us	-12303
enth	-12304
ints	-12305
irds	-12306
look	-12307
nach	-12308
pfel	-12309
schn	-12310
▁Amy	-12311
agnet	-12312
itual	-12313
küste	-12314
phäre	-12315
▁Hong	-12316
▁Lego	-12317
▁Live	-12318
▁Läch	-12319
▁Verm	-12320
▁Vert	-12321
▁blow	-12322
▁desk	-12323
▁loop	-12324
▁naja	-12325
▁pool	-12326
▁root	-12327
gypten	-12328
iguren	-12329
jected	-12330
▁Anruf	-12331
▁Autom	-12332
▁Große	-12333
▁Kateg	-12334
▁Latin	-12335
▁angen	-12336
▁angry	-12337
▁boxes	-12338
▁datab	-12339
▁grüne	-12340
▁knapp	-12341
station	-12342
▁Ganzen	-12343
▁Hypoth	-12344
▁Schwer	-12345
▁ausges	-12346
▁ausser	-12347
▁einzus	-12348
▁gigant	-12349
▁sensor	-12350
▁toilet	-12351
▁überle	-12352
ubringen	-12353
▁Aspekte	-12354
▁Detroit	-12355
▁grossen	-12356
▁nannten	-12357
▁sensors	-12358
▁surgeon	-12359
erentwick	-12360
▁Gebäuden	-12361
▁Gegenden	-12362
▁ausgeben	-12363
▁instruct	-12364
▁momentan	-12365
▁penguins	-12366
▁wherever	-12367
▁Ernährung	-12368
▁Geschäfte	-12369
▁Verbrauch	-12370
▁anzusehen	-12371
▁corporate	-12372
▁niemanden	-12373
▁reduziert	-12374
▁standards	-12375
▁Brustkrebs	-12376
▁wundervoll	-12377
gesellschaft	-12378
▁elektrische	-12379
Bl	-12380
erd	-12381
mod	-12382
beln	-12383
erem	-12384
ilde	-12385
iser	-12386
ucks	-12387
züge	-12388
älle	-12389
▁Mur	-12390
▁Roy	-12391
▁rum	-12392
▁tea	-12393
▁Übr	-12394
agger	-12395
erung	-12396
iable	-12397
oxide	-12398
samen	-12399
▁Fert	-12400
▁Grün	-12401
▁Naja	-12402
▁Song	-12403
▁Wann	-12404
▁jail	-12405
▁kons	-12406
▁tube	-12407
bilder	-12408
onnect	-12409
vollen	-12410
▁Berge	-12411
▁Cyber	-12412
▁Links	-12413
▁McDon	-12414
▁Sechs	-12415
▁polio	-12416
▁style	-12417
▁wirkt	-12418
▁Aktion	-12419
▁Faktor	-12420
▁Futter	-12421
▁Metall	-12422
▁Pollen	-12423
▁Schalt	-12424
▁agreed	-12425
▁angeht	-12426
▁chocol	-12427
▁dauern	-12428
▁fokuss	-12429
▁interc	-12430
▁lehren	-12431
abilität	-12432
ensystem	-12433
inations	-12434
▁Zweifel	-12435
▁anticip	-12436
▁careful	-12437
▁carried	-12438
▁dancing	-12439
▁frankly	-12440
▁funding	-12441
▁gezogen	-12442
▁monkeys	-12443
▁overall	-12444
▁windows	-12445
▁younger	-12446
nderungen	-12447
operation	-12448
▁Schlacht	-12449
▁Training	-12450
▁eröffnet	-12451
▁infinite	-12452
▁occasion	-12453
▁organism	-12454
▁psychiat	-12455
▁verliert	-12456
▁wünschte	-12457
▁Afrikaner	-12458
▁Ingenieur	-12459
▁identical	-12460
▁spezielle	-12461
▁spreading	-12462
▁zunehmend	-12463
▁Ingenieure	-12464
▁Teilnehmer	-12465
▁behavioral	-12466
▁directions	-12467
▁hinzufügen	-12468
▁eigentliche	-12469
▁vorbereitet	-12470
▁Bevölkerungs	-12471
▁insbesondere	-12472
▁ursprünglich	-12473
▁automatically	-12474
IS	-12475
OL	-12476
ye	-12477
All	-12478
bly	-12479
gly	-12480
hst	-12481
▁42	-12482
▁Av	-12483
▁Hi	-12484
afel	-12485
aint	-12486
derm	-12487
etti	-12488
gelt	-12489
iums	-12490
oust	-12491
steh	-12492
aktiv	-12493
folgs	-12494
insel	-12495
kette	-12496
these	-12497
unruh	-12498
▁Blue	-12499
▁Hard	-12500
▁Knie	-12501
▁Nähr	-12502
▁Witz	-12503
▁acts	-12504
▁cash	-12505
▁dign	-12506
▁hilf	-12507
▁legt	-12508
▁plug	-12509
▁swim	-12510
anlage	-12511
eitert	-12512
ereien	-12513
gnügen	-12514
linien	-12515
▁Erste	-12516
▁Proto	-12517
▁Zähne	-12518
▁decre	-12519
▁fixed	-12520
▁pitch	-12521
▁plans	-12522
▁pyram	-12523
▁Aufbau	-12524
▁Gesamt	-12525
▁assume	-12526
▁erneut	-12527
▁garant	-12528
▁orient	-12529
▁Darüber	-12530
▁Schicht	-12531
▁Taschen	-12532
▁diagram	-12533
▁feeding	-12534
▁poorest	-12535
▁violent	-12536
▁Erdbeben	-12537
▁Remember	-12538
▁bewirken	-12539
▁domestic	-12540
▁ernähren	-12541
▁glaubten	-12542
▁obsessed	-12543
▁overcome	-12544
▁symptoms	-12545
▁transmit	-12546
▁lifestyle	-12547
▁selection	-12548
▁storytell	-12549
zeichnungen	-12550
▁Bibliothek	-12551
▁Dunkelheit	-12552
▁Verbrechen	-12553
▁eingeführt	-12554
▁mechanical	-12555
▁Erwartungen	-12556
▁application	-12557
▁represented	-12558
▁wiederholen	-12559
▁hinterlassen	-12560
▁Normalerweise	-12561
▁interessanten	-12562
▁Lebenserwartung	-12563
SP	-12564
But	-12565
ETI	-12566
alu	-12567
rok	-12568
anzt	-12569
ihen	-12570
yrus	-12571
älte	-12572
▁10.	-12573
▁Acc	-12574
▁DVD	-12575
▁aer	-12576
▁pin	-12577
achel	-12578
iolet	-12579
night	-12580
▁Beij	-12581
▁Dial	-12582
▁Dsch	-12583
▁Haar	-12584
▁Mike	-12585
ederal	-12586
erlich	-12587
öntgen	-12588
▁Chile	-12589
▁Clint	-12590
▁Congo	-12591
▁Teams	-12592
▁enemy	-12593
▁faced	-12594
▁honey	-12595
▁paras	-12596
▁scary	-12597
▁title	-12598
▁toxic	-12599
▁weißt	-12600
ektiven	-12601
▁County	-12602
▁Ethiop	-12603
▁Gandhi	-12604
▁Oberfl	-12605
▁Schuhe	-12606
▁Sweden	-12607
▁genius	-12608
▁hunger	-12609
▁leiten	-12610
▁puzzle	-12611
▁tested	-12612
anischen	-12613
ervative	-12614
▁Finally	-12615
▁Verlauf	-12616
▁channel	-12617
▁constra	-12618
▁earthqu	-12619
▁gründen	-12620
▁letzter	-12621
▁schmerz	-12622
▁Carolina	-12623
▁Chinesen	-12624
▁Krankenh	-12625
▁Weisheit	-12626
▁concepts	-12627
▁elephant	-12628
▁equation	-12629
▁grateful	-12630
▁illusion	-12631
▁suggests	-12632
▁untersch	-12633
▁Bedrohung	-12634
▁consumers	-12635
▁recording	-12636
technologie	-12637
▁Erwachsene	-12638
▁wahrnehmen	-12639
▁Terroristen	-12640
▁controlling	-12641
▁cooperation	-12642
▁recognition	-12643
▁wunderbaren	-12644
▁fantastische	-12645
oz	-12646
eed	-12647
▁2:	-12648
▁Id	-12649
abin	-12650
frei	-12651
ifiz	-12652
neid	-12653
ocke	-12654
thur	-12655
tten	-12656
weiß	-12657
▁30-	-12658
▁Ast	-12659
▁Ted	-12660
▁cha	-12661
▁gee	-12662
▁reh	-12663
kular	-12664
ortet	-12665
viele	-12666
▁Dame	-12667
▁Male	-12668
▁scan	-12669
▁trug	-12670
▁zone	-12671
gebiet	-12672
iratet	-12673
würdig	-12674
▁Asien	-12675
▁Delhi	-12676
▁Fried	-12677
▁Humor	-12678
▁Level	-12679
▁Polio	-12680
▁Roman	-12681
▁dozen	-12682
▁stack	-12683
ichtete	-12684
konomen	-12685
mittelt	-12686
reibung	-12687
schauen	-12688
▁Gemüse	-12689
▁Number	-12690
▁Rezept	-12691
▁Schild	-12692
▁Shakes	-12693
▁Singap	-12694
▁colony	-12695
▁extent	-12696
▁kaufte	-12697
▁linear	-12698
▁machst	-12699
▁mainly	-12700
▁neigen	-12701
▁oberen	-12702
▁owners	-12703
▁placed	-12704
▁pocket	-12705
▁rechte	-12706
▁slides	-12707
▁struck	-12708
romagnet	-12709
▁Angriff	-12710
▁Inneren	-12711
▁Montere	-12712
▁Neugier	-12713
▁breathe	-12714
▁extinct	-12715
▁library	-12716
▁painful	-12717
▁pushing	-12718
▁zurecht	-12719
▁Brooklyn	-12720
▁Everyone	-12721
▁Ursprung	-12722
▁anpassen	-12723
▁erfassen	-12724
▁exponent	-12725
▁mehreren	-12726
▁policies	-12727
▁reagiert	-12728
▁Geschmack	-12729
▁Plötzlich	-12730
▁Schreiben	-12731
▁Umständen	-12732
▁begreifen	-12733
▁breathing	-12734
▁determine	-12735
▁increases	-12736
▁architects	-12737
▁exhibition	-12738
▁genetische	-12739
▁greenhouse	-12740
▁ländlichen	-12741
▁unsichtbar	-12742
▁distributed	-12743
▁verursachen	-12744
▁conventional	-12745
▁entertainment	-12746
▁grundlegenden	-12747
öd	-12748
100	-12749
ado	-12750
▁4,	-12751
▁IM	-12752
▁JA	-12753
dach	-12754
plom	-12755
pril	-12756
ubes	-12757
zten	-12758
athed	-12759
atson	-12760
lesen	-12761
rechn	-12762
reift	-12763
stuhl	-12764
▁1900	-12765
▁2006	-12766
▁2009	-12767
▁Beit	-12768
▁Blau	-12769
▁Euch	-12770
▁Haie	-12771
▁Hung	-12772
▁Infe	-12773
▁cand	-12774
▁nest	-12775
▁poly	-12776
▁pour	-12777
▁till	-12778
auften	-12779
freund	-12780
pathie	-12781
uchtet	-12782
zahlen	-12783
▁Absol	-12784
▁Scham	-12785
▁Schok	-12786
▁Tiefe	-12787
▁alarm	-12788
▁flood	-12789
▁grows	-12790
▁phase	-12791
▁stärk	-12792
osphere	-12793
▁Albert	-12794
▁acknow	-12795
▁beherr	-12796
▁deinem	-12797
▁househ	-12798
▁latest	-12799
▁limits	-12800
▁murder	-12801
▁prices	-12802
▁schlau	-12803
▁traged	-12804
aufnahme	-12805
äuschung	-12806
▁Nothing	-12807
▁causing	-12808
▁divided	-12809
▁mittels	-12810
▁parking	-12811
▁verschl	-12812
▁Erinnern	-12813
▁Männchen	-12814
▁November	-12815
▁Problems	-12816
▁brothers	-12817
▁maintain	-12818
▁outcomes	-12819
▁Innerhalb	-12820
▁Weltkrieg	-12821
▁component	-12822
▁disorders	-12823
▁exploring	-12824
▁presented	-12825
▁translate	-12826
krankheiten	-12827
▁resistance	-12828
▁Eigenschaft	-12829
▁educational	-12830
▁inspirieren	-12831
▁technischen	-12832
▁dramatically	-12833
▁Nachbarschaft	-12834
"?	-12835
Ch	-12836
wa	-12837
hof	-12838
mat	-12839
▁0,	-12840
▁Ka	-12841
cean	-12842
nütz	-12843
utch	-12844
▁Bre	-12845
▁IBM	-12846
▁Tum	-12847
▁Zus	-12848
▁fan	-12849
▁ink	-12850
▁pip	-12851
▁sed	-12852
▁wär	-12853
cence	-12854
isely	-12855
▁Girl	-12856
▁Kohl	-12857
▁Snow	-12858
▁boom	-12859
▁gray	-12860
▁hers	-12861
▁limb	-12862
▁läng	-12863
▁zuzu	-12864
irgend	-12865
ördert	-12866
▁Guten	-12867
▁Hawai	-12868
▁Kongo	-12869
▁Misch	-12870
▁accum	-12871
▁diver	-12872
▁explo	-12873
▁mobil	-12874
▁rufen	-12875
▁ruhig	-12876
▁tasks	-12877
▁tries	-12878
▁worum	-12879
schläge	-12880
▁Before	-12881
▁Machen	-12882
▁Niveau	-12883
▁Portug	-12884
▁berück	-12885
▁billig	-12886
▁column	-12887
▁höhere	-12888
▁legisl	-12889
▁schlug	-12890
▁worker	-12891
computer	-12892
▁Ausgang	-12893
▁beunruh	-12894
▁borders	-12895
▁collaps	-12896
▁diverse	-12897
▁erinner	-12898
▁geteilt	-12899
▁privacy	-12900
▁solving	-12901
▁starken	-12902
▁unbelie	-12903
▁Benjamin	-12904
▁Fahrzeug	-12905
▁Monterey	-12906
▁anhalten	-12907
▁asteroid	-12908
▁engaging	-12909
▁floating	-12910
▁gerettet	-12911
▁studiert	-12912
▁celebrate	-12913
▁measuring	-12914
▁mitnehmen	-12915
▁prototype	-12916
▁Heutzutage	-12917
▁Mobiltelef	-12918
▁kulturelle	-12919
▁Wasserstoff	-12920
▁beigebracht	-12921
▁entrepreneur	-12922
▁konfrontiert	-12923
▁Kommunikations	-12924
11	-12925
tä	-12926
MMY	-12927
aft	-12928
ila	-12929
kle	-12930
sst	-12931
UMMY	-12932
eins	-12933
gles	-12934
illy	-12935
otes	-12936
ppen	-12937
quis	-12938
rome	-12939
yers	-12940
ätte	-12941
ückt	-12942
üter	-12943
▁20-	-12944
▁Kuh	-12945
▁ath	-12946
▁zit	-12947
Spiel	-12948
brech	-12949
ioxid	-12950
isses	-12951
▁Bier	-12952
▁Bord	-12953
▁Farm	-12954
▁Glet	-12955
▁SETI	-12956
▁Schm	-12957
▁Walk	-12958
▁Weit	-12959
▁guar	-12960
▁ours	-12961
▁phil	-12962
ienten	-12963
yright	-12964
▁Bibel	-12965
▁presc	-12966
▁sales	-12967
▁schüt	-12968
▁smoke	-12969
▁yield	-12970
unclear	-12971
▁Andrew	-12972
▁Sicher	-12973
▁Tasman	-12974
▁Wahlen	-12975
▁Widers	-12976
▁extend	-12977
▁herein	-12978
▁marine	-12979
▁plenty	-12980
▁soweit	-12981
▁späten	-12982
▁tanzen	-12983
▁vorhin	-12984
▁winzig	-12985
▁Klavier	-12986
▁besucht	-12987
▁dankbar	-12988
▁habitat	-12989
▁license	-12990
▁positiv	-12991
▁vessels	-12992
▁Faktoren	-12993
▁Leonardo	-12994
▁Theorien	-12995
▁appeared	-12996
▁besuchte	-12997
▁erwähnen	-12998
▁particle	-12999
▁printing	-13000
▁recommen	-13001
▁romantic	-13002
▁vielmehr	-13003
▁Vergnügen	-13004
▁ausmachen	-13005
▁bekämpfen	-13006
▁erforscht	-13007
▁furniture	-13008
▁paintings	-13009
▁uncertain	-13010
▁langweilig	-13011
▁philosophy	-13012
▁Neuigkeiten	-13013
▁interactive	-13014
▁organisiert	-13015
▁Mathematiker	-13016
▁entscheidend	-13017
▁interactions	-13018
▁Einrichtungen	-13019
Wer	-13020
bum	-13021
lag	-13022
▁29	-13023
▁BM	-13024
▁är	-13025
Aber	-13026
ault	-13027
ehör	-13028
etts	-13029
fügt	-13030
ione	-13031
phas	-13032
walk	-13033
wass	-13034
▁192	-13035
▁mim	-13036
fühlt	-13037
itial	-13038
lines	-13039
oppel	-13040
ralen	-13041
riebs	-13042
yster	-13043
▁Base	-13044
▁Dist	-13045
▁Iron	-13046
▁aust	-13047
▁erhe	-13048
▁jewe	-13049
bringt	-13050
fläche	-13051
onders	-13052
stücke	-13053
▁Democ	-13054
▁Stick	-13055
▁imper	-13056
▁teams	-13057
▁usual	-13058
osphäre	-13059
▁Geruch	-13060
▁Golden	-13061
▁Rechen	-13062
▁lovely	-13063
▁narrow	-13064
▁proced	-13065
▁severe	-13066
▁spoken	-13067
▁Erfolgs	-13068
▁Systems	-13069
▁classic	-13070
▁concert	-13071
▁density	-13072
▁existed	-13073
▁fiction	-13074
▁französ	-13075
▁musikal	-13076
▁receive	-13077
▁savings	-13078
▁wieviel	-13079
▁Behinder	-13080
▁Physiker	-13081
▁Schulter	-13082
▁Systemen	-13083
▁achieved	-13084
▁berühren	-13085
▁erklärte	-13086
▁involves	-13087
▁laughing	-13088
▁manifest	-13089
▁seltsame	-13090
▁visuelle	-13091
produktion	-13092
▁Belohnung	-13093
▁Projekten	-13094
▁denselben	-13095
▁economies	-13096
▁gestartet	-13097
▁insurance	-13098
▁kreativen	-13099
▁practices	-13100
▁precisely	-13101
▁Geographic	-13102
▁Geschäftsm	-13103
▁Verwendung	-13104
▁commitment	-13105
▁connecting	-13106
▁fascinated	-13107
▁performing	-13108
▁vorsichtig	-13109
▁interacting	-13110
▁sogenannten	-13111
▁elektrischen	-13112
▁außergewöhnlich	-13113
Ind	-13114
abb	-13115
äck	-13116
▁Et	-13117
▁Ra	-13118
▁Sn	-13119
▁ow	-13120
Welt	-13121
innt	-13122
ming	-13123
rary	-13124
rets	-13125
rich	-13126
örte	-13127
▁193	-13128
▁Bor	-13129
▁Dec	-13130
▁Mio	-13131
▁Sea	-13132
▁Uni	-13133
▁raw	-13134
angle	-13135
fined	-13136
geord	-13137
istin	-13138
peare	-13139
teils	-13140
▁Bege	-13141
▁Gall	-13142
▁Kond	-13143
▁Nerv	-13144
▁Rett	-13145
▁Robo	-13146
▁axis	-13147
▁dumm	-13148
▁prem	-13149
▁scar	-13150
called	-13151
ikatur	-13152
kultur	-13153
leiten	-13154
▁Gebur	-13155
▁Immun	-13156
▁Jones	-13157
▁Subst	-13158
▁aston	-13159
▁gründ	-13160
▁whale	-13161
▁zählt	-13162
brochen	-13163
gemacht	-13164
quently	-13165
related	-13166
▁Church	-13167
▁Teufel	-13168
▁Watson	-13169
▁candid	-13170
▁fabric	-13171
▁hearts	-13172
▁immune	-13173
▁konsum	-13174
▁ladies	-13175
▁liebte	-13176
▁phrase	-13177
▁planen	-13178
▁secure	-13179
▁stirbt	-13180
▁surely	-13181
▁thrown	-13182
▁wütend	-13183
▁Anstieg	-13184
▁Islamic	-13185
▁Italien	-13186
▁Lächeln	-13187
▁Röntgen	-13188
▁Verteid	-13189
▁disgust	-13190
▁housing	-13191
▁opposed	-13192
▁orchest	-13193
ikanische	-13194
▁Africans	-13195
▁Batterie	-13196
▁Gefangen	-13197
▁Richtige	-13198
▁befreien	-13199
▁disorder	-13200
▁eingehen	-13201
▁erfüllen	-13202
▁properly	-13203
▁traveled	-13204
▁winzigen	-13205
▁Plattform	-13206
▁berechnen	-13207
▁destroyed	-13208
▁sculpture	-13209
ischerweise	-13210
▁department	-13211
▁investiert	-13212
▁schwierige	-13213
▁Interessant	-13214
▁entsprechen	-13215
▁moralischen	-13216
▁zurückgehen	-13217
▁biologischen	-13218
▁zurückkehren	-13219
200	-13220
fäh	-13221
pal	-13222
pan	-13223
▁Wi	-13224
atts	-13225
eing	-13226
iday	-13227
opes	-13228
rins	-13229
zone	-13230
▁Nic	-13231
▁Ohr	-13232
▁Oxy	-13233
▁Paz	-13234
▁Wut	-13235
▁adm	-13236
acted	-13237
esity	-13238
ohlen	-13239
ouver	-13240
vater	-13241
änner	-13242
▁Bern	-13243
▁Hans	-13244
▁Next	-13245
▁Nick	-13246
▁denk	-13247
▁dish	-13248
▁lets	-13249
▁ugly	-13250
chtern	-13251
father	-13252
graben	-13253
messer	-13254
utzend	-13255
▁April	-13256
▁Sagen	-13257
▁femin	-13258
▁globe	-13259
▁hoher	-13260
▁judge	-13261
▁likes	-13262
▁mikro	-13263
▁orbit	-13264
▁schme	-13265
▁übern	-13266
forward	-13267
politik	-13268
▁20,000	-13269
▁Medium	-13270
▁Reihen	-13271
▁Reisen	-13272
▁Tränen	-13273
▁agenda	-13274
▁arrang	-13275
▁behave	-13276
▁eradic	-13277
▁freund	-13278
▁gewann	-13279
▁inject	-13280
▁kaputt	-13281
▁repeat	-13282
▁signed	-13283
▁writer	-13284
gegangen	-13285
stellten	-13286
▁Analyse	-13287
▁Konstru	-13288
▁Muslims	-13289
▁Nations	-13290
▁Vorgang	-13291
▁appears	-13292
▁balloon	-13293
▁benutze	-13294
▁ceiling	-13295
▁dioxide	-13296
▁entered	-13297
▁gesetzt	-13298
▁intense	-13299
▁neither	-13300
▁raising	-13301
▁stretch	-13302
ianischen	-13303
ränkungen	-13304
▁Trotzdem	-13305
▁attached	-13306
▁breaking	-13307
▁dominant	-13308
▁embedded	-13309
▁gelassen	-13310
▁recovery	-13311
geschlagen	-13312
▁Schmerzen	-13313
▁chocolate	-13314
▁Reaktionen	-13315
▁controvers	-13316
▁dazwischen	-13317
▁ignorieren	-13318
▁Transparenz	-13319
▁disappeared	-13320
▁productivity	-13321
▁verschiedener	-13322
BC	-13323
Sc	-13324
Ach	-13325
ißt	-13326
yon	-13327
ärt	-13328
▁37	-13329
▁sy	-13330
lehr	-13331
meid	-13332
uity	-13333
zero	-13334
▁15-	-13335
▁CEO	-13336
▁Jac	-13337
▁bon	-13338
amine	-13339
meter	-13340
oiden	-13341
ätten	-13342
ürzen	-13343
▁Diff	-13344
▁Doug	-13345
▁Fern	-13346
▁Glüh	-13347
▁Jane	-13348
▁Nutz	-13349
▁Saal	-13350
▁appe	-13351
▁depr	-13352
▁dict	-13353
▁lung	-13354
▁refr	-13355
▁seas	-13356
▁vorn	-13357
▁wing	-13358
heorie	-13359
ktoren	-13360
▁Aller	-13361
▁Enkel	-13362
▁Poliz	-13363
▁Verst	-13364
▁alltä	-13365
▁angle	-13366
▁dense	-13367
▁jenem	-13368
▁jenen	-13369
▁knock	-13370
▁könne	-13371
▁veran	-13372
▁verpf	-13373
▁walks	-13374
▁Extrem	-13375
▁Großen	-13376
▁Leiter	-13377
▁bildet	-13378
▁conven	-13379
▁divide	-13380
▁frozen	-13381
▁hassen	-13382
▁pandem	-13383
▁zufäll	-13384
▁Abraham	-13385
▁Neander	-13386
▁Schwarz	-13387
▁Skelett	-13388
▁Spinnen	-13389
▁awesome	-13390
▁dignity	-13391
▁finance	-13392
▁lernten	-13393
▁reflekt	-13394
▁whereas	-13395
ulationen	-13396
▁Autismus	-13397
▁Hinblick	-13398
▁academic	-13399
▁dolphins	-13400
▁estimate	-13401
▁horizont	-13402
▁imagined	-13403
▁lebenden	-13404
▁magnetic	-13405
▁meetings	-13406
▁reaching	-13407
▁riesiges	-13408
▁shooting	-13409
▁shoulder	-13410
▁vernünft	-13411
▁verwende	-13412
▁Denkweise	-13413
▁Konflikte	-13414
▁animation	-13415
▁chemische	-13416
▁curiosity	-13417
▁depending	-13418
▁reduction	-13419
▁besonderen	-13420
▁inequality	-13421
▁recognized	-13422
▁Herstellung	-13423
▁personality	-13424
▁populations	-13425
▁wunderschöne	-13426
▁Gleichgewicht	-13427
▁identifizieren	-13428
add	-13429
kat	-13430
sex	-13431
wel	-13432
änz	-13433
▁EM	-13434
▁Wa	-13435
▁zü	-13436
ague	-13437
avor	-13438
fare	-13439
onic	-13440
▁202	-13441
▁BIP	-13442
▁Dir	-13443
▁Hub	-13444
▁Ram	-13445
▁Tib	-13446
▁irr	-13447
▁ärm	-13448
eiden	-13449
ffend	-13450
fähig	-13451
gebra	-13452
ikale	-13453
using	-13454
▁Dreh	-13455
▁Füße	-13456
▁Klar	-13457
▁Ruhe	-13458
▁Term	-13459
▁Zero	-13460
▁beer	-13461
▁hine	-13462
▁welt	-13463
ichtum	-13464
iessen	-13465
ropfen	-13466
source	-13467
▁Beton	-13468
▁Hyper	-13469
▁Moore	-13470
▁Party	-13471
▁Still	-13472
▁Voice	-13473
▁brach	-13474
▁brown	-13475
▁evalu	-13476
▁korre	-13477
▁purch	-13478
▁saßen	-13479
▁shake	-13480
▁therm	-13481
▁units	-13482
▁utter	-13483
aktoren	-13484
ichtung	-13485
odivers	-13486
▁50,000	-13487
▁Besitz	-13488
▁Columb	-13489
▁Laufen	-13490
▁Zurück	-13491
▁adjust	-13492
▁anonym	-13493
▁ausged	-13494
▁geheim	-13495
▁heroes	-13496
▁ignore	-13497
▁kommer	-13498
▁legacy	-13499
▁schaue	-13500
▁schock	-13501
▁wenden	-13502
▁Bericht	-13503
▁Stephen	-13504
▁Treffen	-13505
▁William	-13506
▁bizarre	-13507
▁distant	-13508
▁dunklen	-13509
▁militär	-13510
▁suspect	-13511
▁trigger	-13512
▁Ausnahme	-13513
▁Children	-13514
▁captured	-13515
▁download	-13516
▁getrennt	-13517
▁hierarch	-13518
▁treating	-13519
▁verfolgt	-13520
▁Effizienz	-13521
▁Vorschlag	-13522
▁committed	-13523
▁conflicts	-13524
▁Jedenfalls	-13525
▁Mitglieder	-13526
▁nachhaltig	-13527
▁Präsidenten	-13528
▁anscheinend	-13529
▁chinesische	-13530
▁genetischen	-13531
▁expectations	-13532
▁mittlerweile	-13533
dis	-13534
eda	-13535
eff	-13536
züg	-13537
▁cm	-13538
fine	-13539
hört	-13540
oots	-13541
rist	-13542
▁hem	-13543
▁hyp	-13544
▁wem	-13545
aders	-13546
athol	-13547
behör	-13548
▁Leit	-13549
▁Mumb	-13550
▁Näch	-13551
▁Prop	-13552
▁betr	-13553
▁defe	-13554
▁eleg	-13555
▁flip	-13556
▁flog	-13557
▁fung	-13558
▁gefl	-13559
▁häss	-13560
▁sorg	-13561
▁subs	-13562
▁umso	-13563
apping	-13564
cepted	-13565
fältig	-13566
leucht	-13567
lichem	-13568
uanten	-13569
uition	-13570
▁Block	-13571
▁Gramm	-13572
▁Hitze	-13573
▁Küche	-13574
▁Pferd	-13575
▁Szene	-13576
▁Trend	-13577
▁alien	-13578
▁atmen	-13579
▁bewir	-13580
▁chest	-13581
▁japan	-13582
▁liver	-13583
▁meter	-13584
▁minus	-13585
▁plays	-13586
▁sheep	-13587
▁stieg	-13588
▁tight	-13589
▁verur	-13590
bleiben	-13591
iscover	-13592
▁Marken	-13593
▁Organe	-13594
▁Proben	-13595
▁Really	-13596
▁Wälder	-13597
▁chosen	-13598
▁crying	-13599
▁escape	-13600
▁facial	-13601
▁formal	-13602
▁qualif	-13603
▁rising	-13604
▁scales	-13605
▁wahren	-13606
▁weapon	-13607
aufgaben	-13608
gekommen	-13609
gelassen	-13610
▁Flächen	-13611
▁Schokol	-13612
▁charity	-13613
▁designs	-13614
▁höheren	-13615
▁implant	-13616
▁pretend	-13617
▁stimmen	-13618
volutions	-13619
▁Atlantic	-13620
▁Personal	-13621
▁Vermögen	-13622
▁Virginia	-13623
▁begrenzt	-13624
▁flexible	-13625
▁frighten	-13626
▁gemessen	-13627
▁guarante	-13628
▁hindurch	-13629
▁nebenbei	-13630
▁stations	-13631
▁vertical	-13632
▁Entschuld	-13633
▁backwards	-13634
▁dedicated	-13635
▁beschreibt	-13636
▁governance	-13637
▁incentives	-13638
▁microscope	-13639
▁motivation	-13640
▁Shakespeare	-13641
▁advertising	-13642
▁irgendeinem	-13643
▁Investitionen	-13644
Fl	-13645
jo	-13646
mo	-13647
ava	-13648
aze	-13649
obs	-13650
oen	-13651
oma	-13652
▁0.	-13653
Stud	-13654
apor	-13655
ktis	-13656
lers	-13657
▁Bol	-13658
▁Mov	-13659
▁Rak	-13660
▁ate	-13661
▁cas	-13662
▁cup	-13663
▁hug	-13664
▁lit	-13665
▁obl	-13666
▁tip	-13667
▁ört	-13668
abeth	-13669
aumen	-13670
estet	-13671
rated	-13672
while	-13673
▁Kühl	-13674
▁Pole	-13675
▁dump	-13676
▁glac	-13677
▁golf	-13678
▁inkl	-13679
▁klug	-13680
▁rush	-13681
▁unge	-13682
▁wähl	-13683
fische	-13684
geräte	-13685
lernen	-13686
▁Front	-13687
▁Logik	-13688
▁Santa	-13689
▁abuse	-13690
▁aside	-13691
▁crack	-13692
▁males	-13693
▁recyc	-13694
▁seeds	-13695
▁skull	-13696
▁vital	-13697
gencies	-13698
▁Atomen	-13699
▁Früher	-13700
▁Höhlen	-13701
▁Joseph	-13702
▁Mozart	-13703
▁Rwanda	-13704
▁Spring	-13705
▁auszud	-13706
▁drehte	-13707
▁fliegt	-13708
▁intuit	-13709
▁rating	-13710
▁sports	-13711
▁underg	-13712
▁Blätter	-13713
▁Charlie	-13714
▁Clinton	-13715
▁Dadurch	-13716
▁January	-13717
▁angehen	-13718
▁aspects	-13719
▁bicycle	-13720
▁brechen	-13721
▁erneuer	-13722
▁initial	-13723
▁mammals	-13724
▁obesity	-13725
▁section	-13726
▁suicide	-13727
▁touched	-13728
▁wanting	-13729
▁Pinguine	-13730
▁aircraft	-13731
▁darkness	-13732
▁heiraten	-13733
▁höchsten	-13734
▁kleinere	-13735
▁organize	-13736
▁verletzt	-13737
▁Gespräche	-13738
▁Karikatur	-13739
▁Parkinson	-13740
▁Weihnacht	-13741
▁authentic	-13742
▁customers	-13743
▁privilege	-13744
▁angemessen	-13745
▁arabischen	-13746
▁regelmäßig	-13747
▁reparieren	-13748
▁simplicity	-13749
▁strategies	-13750
▁Anwendungen	-13751
▁Einfachheit	-13752
▁glücklicher	-13753
▁innovations	-13754
▁unternehmen	-13755
▁wundervolle	-13756
▁Universitäten	-13757
▁communications	-13758
CH	-13759
lu	-13760
Kon	-13761
lar	-13762
pel	-13763
top	-13764
▁48	-13765
▁AM	-13766
cont	-13767
kopf	-13768
rand	-13769
rows	-13770
▁190	-13771
▁Bek	-13772
▁Dop	-13773
▁Göt	-13774
▁Kok	-13775
▁Lux	-13776
▁MRI	-13777
▁aim	-13778
▁enh	-13779
▁les	-13780
▁nit	-13781
▁twe	-13782
▁wet	-13783
ifted	-13784
isted	-13785
ricul	-13786
ttern	-13787
ämpft	-13788
▁Abed	-13789
▁Feed	-13790
▁Grie	-13791
▁NGOs	-13792
▁Ross	-13793
▁Vict	-13794
▁lieb	-13795
▁shar	-13796
▁triv	-13797
archie	-13798
erzähl	-13799
etzung	-13800
ienste	-13801
ziplin	-13802
▁Harry	-13803
▁Katze	-13804
▁Kevin	-13805
▁Prior	-13806
▁Sorge	-13807
▁Wände	-13808
▁aband	-13809
▁drove	-13810
▁fried	-13811
▁harte	-13812
▁physi	-13813
▁rocks	-13814
▁tears	-13815
gebiete	-13816
ospiele	-13817
sprache	-13818
▁Arthur	-13819
▁Glücks	-13820
▁Kommen	-13821
▁Mumbai	-13822
▁actors	-13823
▁clinic	-13824
▁devast	-13825
▁einzuf	-13826
▁hardly	-13827
▁interf	-13828
▁keines	-13829
▁missed	-13830
▁trends	-13831
chnology	-13832
▁Muskeln	-13833
▁Protein	-13834
▁Ursache	-13835
▁amongst	-13836
▁entschl	-13837
▁gewöhnt	-13838
▁instant	-13839
▁jeweils	-13840
▁lecture	-13841
▁letting	-13842
▁muscles	-13843
▁publish	-13844
▁rebuild	-13845
▁richten	-13846
▁schwere	-13847
▁Dokument	-13848
▁Gebieten	-13849
▁Prozesse	-13850
▁confront	-13851
▁gründete	-13852
▁minister	-13853
▁northern	-13854
▁produces	-13855
▁symmetry	-13856
▁wahrhaft	-13857
▁Treibhaus	-13858
▁benutzten	-13859
▁colleague	-13860
▁continues	-13861
▁gesammelt	-13862
▁infiziert	-13863
▁insgesamt	-13864
▁mittleren	-13865
▁neugierig	-13866
▁Organismus	-13867
▁functional	-13868
▁inzwischen	-13869
▁Philosophie	-13870
▁Unternehmens	-13871
▁transparency	-13872
▁Weltbevölkerung	-13873
▁4.	-13874
▁46	-13875
▁DP	-13876
▁Ku	-13877
▁SP	-13878
ackt	-13879
agte	-13880
amed	-13881
azin	-13882
uman	-13883
wort	-13884
äher	-13885
ürzt	-13886
▁Kos	-13887
▁Wen	-13888
▁fed	-13889
▁lin	-13890
ckets	-13891
class	-13892
eters	-13893
kohol	-13894
lösen	-13895
romos	-13896
ziell	-13897
ächer	-13898
öhren	-13899
▁Brut	-13900
▁Ehre	-13901
▁Fing	-13902
▁Juni	-13903
▁Pitt	-13904
▁Prüf	-13905
▁Real	-13906
▁Turn	-13907
▁bath	-13908
▁boss	-13909
▁cute	-13910
▁excl	-13911
▁hire	-13912
▁mold	-13913
▁prev	-13914
▁rely	-13915
▁sexy	-13916
Wissen	-13917
annter	-13918
gender	-13919
klasse	-13920
porter	-13921
schild	-13922
▁Bible	-13923
▁Ernst	-13924
▁Figur	-13925
▁Serie	-13926
▁abund	-13927
▁dicht	-13928
▁finds	-13929
▁illeg	-13930
▁route	-13931
▁womit	-13932
▁öfter	-13933
nderung	-13934
projekt	-13935
staaten	-13936
wachsen	-13937
äuschen	-13938
▁Bedarf	-13939
▁Daniel	-13940
▁Dialog	-13941
▁Disney	-13942
▁Gipfel	-13943
▁Michel	-13944
▁Palest	-13945
▁Tasche	-13946
▁Umgang	-13947
▁beides	-13948
▁beseit	-13949
▁heaven	-13950
▁hungry	-13951
▁oldest	-13952
▁simult	-13953
▁vierte	-13954
ständige	-13955
▁Designs	-13956
▁Eastern	-13957
▁Flederm	-13958
▁Kinders	-13959
▁Verhand	-13960
▁airport	-13961
▁bedeckt	-13962
▁cheaper	-13963
▁extract	-13964
▁mystery	-13965
▁unsicht	-13966
▁verletz	-13967
▁Diabetes	-13968
▁Symptome	-13969
▁anbieten	-13970
▁anstelle	-13971
▁früheren	-13972
▁geöffnet	-13973
▁hardware	-13974
▁kreative	-13975
▁laughter	-13976
▁surfaces	-13977
▁Maßnahmen	-13978
▁Resultate	-13979
▁Verfahren	-13980
▁emergency	-13981
▁generated	-13982
▁primitive	-13983
▁virtually	-13984
▁Funktionen	-13985
▁Handlungen	-13986
▁Wichtigste	-13987
▁collecting	-13988
▁emotionale	-13989
▁historical	-13990
▁journalist	-13991
▁Katastrophe	-13992
▁Konsumenten	-13993
?",	-13994
Let	-13995
Und	-13996
oup	-13997
pox	-13998
reu	-13999
via	-14000
▁72	-14001
brid	-14002
enha	-14003
imps	-14004
rang	-14005
rons	-14006
utan	-14007
viet	-14008
öten	-14009
ühle	-14010
▁Anh	-14011
▁Ign	-14012
▁coo	-14013
▁prü	-14014
There	-14015
iller	-14016
think	-14017
▁Fels	-14018
▁Mahl	-14019
▁Muse	-14020
▁batt	-14021
▁bild	-14022
▁cens	-14023
▁fulf	-14024
▁halt	-14025
decken	-14026
dollar	-14027
gänger	-14028
spanne	-14029
vested	-14030
▁Indem	-14031
▁Indus	-14032
▁Marke	-14033
▁Robot	-14034
▁Rover	-14035
▁Sarah	-14036
▁Staub	-14037
▁beruh	-14038
▁crops	-14039
▁eröff	-14040
▁fluid	-14041
▁highl	-14042
▁islam	-14043
▁laser	-14044
▁lokal	-14045
▁posit	-14046
angehen	-14047
endeten	-14048
illance	-14049
standen	-14050
ylinder	-14051
▁Indeed	-14052
▁Preise	-14053
▁Vorder	-14054
▁attrib	-14055
▁dialog	-14056
▁retire	-14057
▁öffnet	-14058
children	-14059
ichtlich	-14060
ierendes	-14061
mögliche	-14062
▁Beijing	-14063
▁Büchern	-14064
▁Depress	-14065
▁Dutzend	-14066
▁attract	-14067
▁beträgt	-14068
▁efforts	-14069
▁geraten	-14070
▁inspire	-14071
▁lebende	-14072
▁methods	-14073
▁reflect	-14074
▁setzten	-14075
▁speaker	-14076
▁spiritu	-14077
▁verließ	-14078
▁Besonder	-14079
▁Sensoren	-14080
▁aktuelle	-14081
▁contract	-14082
▁sandwich	-14083
▁schickte	-14084
▁verzweif	-14085
▁Übrigens	-14086
▁dimension	-14087
▁elsewhere	-14088
▁gezwungen	-14089
▁indischen	-14090
▁musicians	-14091
▁nachdenkt	-14092
▁searching	-14093
▁verpflich	-14094
▁Motivation	-14095
▁Strategien	-14096
▁apparently	-14097
▁boundaries	-14098
▁engagement	-14099
▁gemeinnütz	-14100
▁optimistic	-14101
▁resolution	-14102
▁wiederholt	-14103
▁chimpanzees	-14104
▁traditionelle	-14105
Me	-14106
OK	-14107
vy	-14108
üd	-14109
Auf	-14110
Ges	-14111
Reg	-14112
auc	-14113
oie	-14114
▁UC	-14115
achs	-14116
baum	-14117
case	-14118
füll	-14119
ktar	-14120
real	-14121
rest	-14122
vier	-14123
äger	-14124
▁Mig	-14125
▁Oct	-14126
▁Six	-14127
▁Syr	-14128
▁Tar	-14129
▁ham	-14130
grade	-14131
hängt	-14132
spect	-14133
worth	-14134
▁Brad	-14135
▁Koch	-14136
▁Leid	-14137
▁Mall	-14138
▁Symb	-14139
▁Verz	-14140
▁Wäre	-14141
▁adop	-14142
▁debt	-14143
▁dust	-14144
▁ehem	-14145
▁entt	-14146
▁gefr	-14147
▁glad	-14148
▁nets	-14149
▁seek	-14150
▁sink	-14151
ailand	-14152
fahrer	-14153
▁2000,	-14154
▁Bruno	-14155
▁Löwen	-14156
▁Meere	-14157
▁Never	-14158
▁Wärme	-14159
▁conce	-14160
▁elder	-14161
▁fifth	-14162
▁genoc	-14163
▁heben	-14164
▁miser	-14165
▁pilot	-14166
▁reefs	-14167
▁schol	-14168
▁stops	-14169
▁yours	-14170
cellent	-14171
century	-14172
gemeine	-14173
iveness	-14174
▁Abhäng	-14175
▁Anweis	-14176
▁Januar	-14177
▁Mannes	-14178
▁Metern	-14179
▁Ratten	-14180
▁Sektor	-14181
▁echtes	-14182
▁emphas	-14183
▁erlaub	-14184
▁feiern	-14185
▁fertil	-14186
▁mochte	-14187
▁paraly	-14188
▁poison	-14189
▁stable	-14190
▁tenden	-14191
▁wartet	-14192
gefallen	-14193
▁Ehemann	-14194
▁Erstaun	-14195
▁Seattle	-14196
▁Sequenz	-14197
▁advance	-14198
▁anfängt	-14199
▁circles	-14200
▁constru	-14201
▁enormen	-14202
▁exposed	-14203
▁herself	-14204
▁höchste	-14205
▁kreiert	-14206
▁origami	-14207
▁pointed	-14208
▁scratch	-14209
▁stammen	-14210
▁trocken	-14211
▁änderte	-14212
▁Epidemie	-14213
▁Gebäudes	-14214
▁Umstände	-14215
▁accepted	-14216
▁ausgesch	-14217
▁criminal	-14218
▁dynamics	-14219
▁equality	-14220
▁football	-14221
▁gesunden	-14222
▁hingehen	-14223
▁leuchten	-14224
▁lighting	-14225
▁pregnant	-14226
▁provides	-14227
▁Höhepunkt	-14228
▁Nachfrage	-14229
▁Versuchen	-14230
▁apartment	-14231
▁Population	-14232
▁Prototypen	-14233
▁accessible	-14234
▁afterwards	-14235
▁capitalism	-14236
▁contribute	-14237
▁earthquake	-14238
▁übersetzen	-14239
▁Alternative	-14240
▁Oberflächen	-14241
▁diskutieren	-14242
▁Ungleichheit	-14243
▁irgendwelche	-14244
▁universities	-14245
RA	-14246
iva	-14247
oir	-14248
zum	-14249
ürt	-14250
▁31	-14251
lter	-14252
osit	-14253
rein	-14254
sely	-14255
tery	-14256
uana	-14257
▁Cap	-14258
▁Ron	-14259
▁Wes	-14260
▁dum	-14261
▁lap	-14262
▁ras	-14263
aches	-14264
gänge	-14265
iance	-14266
liest	-14267
olera	-14268
selbe	-14269
thiop	-14270
▁2001	-14271
▁Anti	-14272
▁Appl	-14273
▁Dick	-14274
▁Horm	-14275
▁fram	-14276
▁pile	-14277
action	-14278
gested	-14279
ighted	-14280
ptions	-14281
straße	-14282
usters	-14283
▁Prize	-14284
▁Tauch	-14285
▁Waffe	-14286
▁einzu	-14287
▁seats	-14288
▁selbe	-14289
▁spots	-14290
▁upset	-14291
▁wings	-14292
▁Muskel	-14293
▁Nature	-14294
▁Wright	-14295
▁achiev	-14296
▁adding	-14297
▁barely	-14298
▁enthus	-14299
▁farmer	-14300
▁füllen	-14301
▁keinem	-14302
▁locked	-14303
▁offene	-14304
▁output	-14305
▁rescue	-14306
ineering	-14307
▁Entsteh	-14308
▁Fremden	-14309
▁Pflanze	-14310
▁Privats	-14311
▁beliefs	-14312
▁paradox	-14313
▁pyramid	-14314
▁removed	-14315
▁tragedy	-14316
▁traject	-14317
▁Biologen	-14318
▁diabetes	-14319
▁gefahren	-14320
▁sinnvoll	-14321
▁Übergang	-14322
▁Überwach	-14323
▁antworten	-14324
▁empfinden	-14325
▁gegenwärt	-14326
▁implement	-14327
▁politisch	-14328
▁strangers	-14329
▁variation	-14330
▁ähnlichen	-14331
▁Schwestern	-14332
▁Verteilung	-14333
▁ausgegeben	-14334
▁physischen	-14335
▁Komponenten	-14336
▁electronics	-14337
▁kulturellen	-14338
▁schlimmsten	-14339
▁Berechnungen	-14340
▁Verbesserung	-14341
▁festgestellt	-14342
--	-14343
Fi	-14344
zz	-14345
And	-14346
Gen	-14347
idi	-14348
lax	-14349
ahar	-14350
fäll	-14351
ilit	-14352
last	-14353
miss	-14354
uens	-14355
wehr	-14356
ästh	-14357
äude	-14358
▁'60	-14359
▁130	-14360
▁17.	-14361
▁Tok	-14362
▁Van	-14363
▁Zie	-14364
▁ego	-14365
▁hip	-14366
▁hüb	-14367
▁mic	-14368
ading	-14369
asien	-14370
cular	-14371
embly	-14372
größe	-14373
keley	-14374
oenix	-14375
otion	-14376
ronen	-14377
uldig	-14378
▁Coca	-14379
▁Hind	-14380
▁Konz	-14381
▁Sier	-14382
▁bias	-14383
▁dick	-14384
▁flag	-14385
▁mice	-14386
▁peer	-14387
Mensch	-14388
acular	-14389
gehört	-14390
school	-14391
sprach	-14392
▁Achse	-14393
▁Craig	-14394
▁Extra	-14395
▁Haare	-14396
▁Louis	-14397
▁Ocean	-14398
▁Schon	-14399
▁advoc	-14400
▁blank	-14401
▁dient	-14402
▁dirty	-14403
▁exakt	-14404
▁fruit	-14405
▁gonna	-14406
▁jelly	-14407
▁tired	-14408
▁unvor	-14409
▁verbr	-14410
▁views	-14411
▁youth	-14412
▁Übung	-14413
schafft	-14414
wandeln	-14415
▁Bomben	-14416
▁Econom	-14417
▁Hawaii	-14418
▁Jewish	-14419
▁Kredit	-14420
▁Magnet	-14421
▁Moskit	-14422
▁Sahara	-14423
▁Trends	-14424
▁Varian	-14425
▁commod	-14426
▁danken	-14427
▁distra	-14428
▁emerge	-14429
▁evolve	-14430
▁fließt	-14431
▁nahezu	-14432
▁nutrit	-14433
▁powers	-14434
▁tribes	-14435
▁werdet	-14436
fortable	-14437
gleichen	-14438
schieden	-14439
▁Alkohol	-14440
▁Atlanta	-14441
▁Lehrern	-14442
▁Medikam	-14443
▁Wurzeln	-14444
▁entfern	-14445
▁essence	-14446
▁granted	-14447
▁liberal	-14448
▁Überall	-14449
▁Amerikas	-14450
▁Demonstr	-14451
▁Feedback	-14452
▁Kontroll	-14453
▁McDonald	-14454
▁Oxytocin	-14455
▁Schwarze	-14456
▁Therapie	-14457
▁Toilette	-14458
▁Weibchen	-14459
▁aufrecht	-14460
▁ausmacht	-14461
▁befassen	-14462
▁benutzte	-14463
▁geworfen	-14464
▁globally	-14465
▁includes	-14466
▁jenseits	-14467
▁smallpox	-14468
▁textbook	-14469
▁verständ	-14470
▁vorwärts	-14471
▁Fahrzeuge	-14472
▁Symmetrie	-14473
▁abgesehen	-14474
▁beitragen	-14475
▁calculate	-14476
▁depressed	-14477
▁separated	-14478
▁weibliche	-14479
ungsprozess	-14480
▁Ausrüstung	-14481
▁affordable	-14482
▁capability	-14483
▁Flüssigkeit	-14484
▁Videospiele	-14485
▁analysieren	-14486
▁consequence	-14487
▁einzigartig	-14488
▁chinesischen	-14489
▁hinsichtlich	-14490
▁repräsentiert	-14491
▁Globalisierung	-14492
',	-14493
'.	-14494
En	-14495
NC	-14496
ca	-14497
ko	-14498
ctu	-14499
eme	-14500
isy	-14501
ohn	-14502
ozi	-14503
▁AK	-14504
agan	-14505
eral	-14506
ffer	-14507
itis	-14508
keep	-14509
kord	-14510
lies	-14511
mass	-14512
reme	-14513
ueen	-14514
▁Fro	-14515
▁Mik	-14516
▁Süß	-14517
▁Tee	-14518
▁wed	-14519
Where	-14520
mächt	-14521
orter	-14522
ruppe	-14523
wohnt	-14524
äufer	-14525
▁Coun	-14526
▁Held	-14527
▁Händ	-14528
▁Urkn	-14529
▁ages	-14530
▁anst	-14531
▁east	-14532
▁knee	-14533
▁komp	-14534
▁mate	-14535
▁ritu	-14536
▁soap	-14537
▁toys	-14538
▁trat	-14539
▁unin	-14540
othing	-14541
▁Appar	-14542
▁Buddh	-14543
▁Force	-14544
▁Knopf	-14545
▁Leber	-14546
▁Risik	-14547
▁aesth	-14548
▁chief	-14549
▁circa	-14550
▁drill	-14551
▁lasst	-14552
▁realm	-14553
▁stets	-14554
▁zehnt	-14555
Projekt	-14556
quellen	-14557
▁Ebenen	-14558
▁Patent	-14559
▁Soviet	-14560
▁Sprung	-14561
▁Steven	-14562
▁adoles	-14563
▁borrow	-14564
▁poster	-14565
▁smooth	-14566
▁Everest	-14567
▁Handeln	-14568
▁Schnell	-14569
▁briefly	-14570
▁chapter	-14571
▁indigen	-14572
▁passing	-14573
▁prosper	-14574
▁symbols	-14575
▁visited	-14576
▁widersp	-14577
▁zuhören	-14578
leuchtung	-14579
▁Arbeitsk	-14580
▁Berkeley	-14581
▁Diplomat	-14582
▁Konzepte	-14583
▁ausreich	-14584
▁einziges	-14585
▁freiwill	-14586
▁schwerer	-14587
▁speakers	-14588
▁theories	-14589
▁announced	-14590
▁bedeutend	-14591
▁dependent	-14592
▁nationale	-14593
▁physische	-14594
▁vergewalt	-14595
▁verrückte	-14596
▁ecosystems	-14597
▁integrated	-14598
▁protecting	-14599
▁terrorists	-14600
▁verstecken	-14601
▁volunteers	-14602
▁demonstrate	-14603
▁ingredients	-14604
▁photography	-14605
▁underground	-14606
▁unterhalten	-14607
▁vorgestellt	-14608
▁zukünftigen	-14609
▁Privatsphäre	-14610
▁agricultural	-14611
▁neuroscience	-14612
▁participants	-14613
▁verschwindet	-14614
organisationen	-14615
▁beeindruckend	-14616
▁neighborhoods	-14617
yo	-14618
Can	-14619
jet	-14620
ölf	-14621
AIDS	-14622
akul	-14623
amie	-14624
gert	-14625
iebt	-14626
male	-14627
meth	-14628
orld	-14629
reut	-14630
yard	-14631
▁Had	-14632
▁fün	-14633
▁ooh	-14634
▁tum	-14635
akete	-14636
ikely	-14637
ipher	-14638
ringe	-14639
rückt	-14640
▁Droh	-14641
▁Lärm	-14642
▁Stil	-14643
▁Wolf	-14644
▁adap	-14645
▁bars	-14646
▁bemü	-14647
▁cord	-14648
▁häuf	-14649
▁mail	-14650
▁neat	-14651
▁nutr	-14652
▁salt	-14653
enschw	-14654
iellen	-14655
rische	-14656
steine	-14657
uklear	-14658
usalem	-14659
▁Alask	-14660
▁Blase	-14661
▁Brand	-14662
▁Kugel	-14663
▁Lesen	-14664
▁balls	-14665
▁banks	-14666
▁blame	-14667
▁cryst	-14668
▁lasse	-14669
▁legte	-14670
▁opens	-14671
▁recru	-14672
▁wound	-14673
anlagen	-14674
drucken	-14675
legenen	-14676
version	-14677
▁Analog	-14678
▁Arabic	-14679
▁Daumen	-14680
▁Intens	-14681
▁Kuchen	-14682
▁Vagina	-14683
▁Wohlbe	-14684
▁attend	-14685
▁befest	-14686
▁forder	-14687
▁höchst	-14688
▁innere	-14689
▁lebend	-14690
▁muslim	-14691
▁neural	-14692
▁rhythm	-14693
▁shadow	-14694
▁tricks	-14695
▁verlor	-14696
aughters	-14697
jähriger	-14698
leuchten	-14699
▁Kohlend	-14700
▁Lichter	-14701
▁Richter	-14702
▁bubbles	-14703
▁clients	-14704
▁consume	-14705
▁crucial	-14706
▁gesunde	-14707
▁painted	-14708
▁pulling	-14709
igerweise	-14710
wesenheit	-14711
▁Baseball	-14712
▁Diagnose	-14713
▁Erschein	-14714
▁Griechen	-14715
▁agencies	-14716
▁ausgehen	-14717
▁erkunden	-14718
▁external	-14719
▁returned	-14720
▁schreibe	-14721
▁Ansichten	-14722
▁Christian	-14723
▁Internets	-14724
▁Kreislauf	-14725
▁Techniken	-14726
▁Toiletten	-14727
▁visuellen	-14728
▁Selbstmord	-14729
▁Standpunkt	-14730
▁Versorgung	-14731
▁dramatisch	-14732
▁teilnehmen	-14733
▁vereinfach	-14734
abhängigkeit	-14735
▁philanthrop	-14736
▁schizophren	-14737
▁Nervenzellen	-14738
▁ausschließlich	-14739
▁schlussendlich	-14740
40	-14741
Ab	-14742
KW	-14743
ady	-14744
ela	-14745
pie	-14746
rah	-14747
ran	-14748
wan	-14749
öne	-14750
▁ax	-14751
fold	-14752
pers	-14753
weit	-14754
ätig	-14755
üten	-14756
▁Bez	-14757
▁McC	-14758
▁Syl	-14759
▁Vin	-14760
▁Vul	-14761
▁Zut	-14762
▁unb	-14763
▁une	-14764
▁wow	-14765
iffen	-14766
▁2003	-14767
▁Brie	-14768
▁Gift	-14769
▁Give	-14770
▁Hosp	-14771
▁Nest	-14772
▁Sund	-14773
▁Work	-14774
▁beet	-14775
▁caps	-14776
▁drit	-14777
▁hack	-14778
▁laid	-14779
▁leap	-14780
▁mask	-14781
▁pace	-14782
▁pupp	-14783
▁spin	-14784
▁sulf	-14785
▁tied	-14786
eltern	-14787
enness	-14788
fällig	-14789
lessly	-14790
mensch	-14791
waffen	-14792
zenten	-14793
▁Aster	-14794
▁Frühl	-14795
▁Höhle	-14796
▁Kosov	-14797
▁Künst	-14798
▁Larry	-14799
▁Mathe	-14800
▁Nadel	-14801
▁Rauch	-14802
▁Wasch	-14803
▁anste	-14804
▁anzuf	-14805
▁apple	-14806
▁freie	-14807
▁helic	-14808
▁hydro	-14809
▁sheet	-14810
▁spark	-14811
bezogen	-14812
griffen	-14813
igenten	-14814
theorie	-14815
tragung	-14816
▁Argent	-14817
▁Astron	-14818
▁Babies	-14819
▁Fahrer	-14820
▁Praxis	-14821
▁Rollen	-14822
▁Scient	-14823
▁Sierra	-14824
▁Stille	-14825
▁Vertra	-14826
▁Victor	-14827
▁branch	-14828
▁degrad	-14829
▁fuhren	-14830
▁invite	-14831
▁kooper	-14832
▁layers	-14833
▁observ	-14834
▁schief	-14835
▁silent	-14836
▁stages	-14837
▁umwelt	-14838
▁untern	-14839
American	-14840
beziehen	-14841
▁Hundert	-14842
▁Inhalte	-14843
▁Schwanz	-14844
▁Whether	-14845
▁bedroht	-14846
▁defense	-14847
▁erfüllt	-14848
▁ersetzt	-14849
▁ethical	-14850
▁gelehrt	-14851
▁hanging	-14852
▁heutige	-14853
▁intrins	-14854
▁picking	-14855
▁Ausgaben	-14856
▁Hinweise	-14857
▁Mitglied	-14858
▁Stiftung	-14859
▁Vorträge	-14860
▁behaupte	-14861
▁controls	-14862
▁facility	-14863
▁gebildet	-14864
▁incident	-14865
▁isolated	-14866
▁jährlich	-14867
▁künstler	-14868
▁privaten	-14869
▁reminded	-14870
▁repeated	-14871
▁southern	-14872
▁sozialer	-14873
▁unlikely	-14874
▁verliebt	-14875
▁zentrale	-14876
▁Statistik	-14877
▁accidents	-14878
▁elections	-14879
▁erhielten	-14880
▁intensive	-14881
▁letztlich	-14882
▁positiven	-14883
▁ungeheuer	-14884
▁unterhalb	-14885
▁verteilen	-14886
▁weltweite	-14887
▁reputation	-14888
▁umzusetzen	-14889
▁wirklichen	-14890
▁grandfather	-14891
▁probability	-14892
▁auszudrücken	-14893
▁surveillance	-14894
▁zurückkommen	-14895
▁dreidimension	-14896
▁uncomfortable	-14897
▁characteristics	-14898
Gl	-14899
IA	-14900
gu	-14901
eds	-14902
krä	-14903
til	-14904
wes	-14905
▁Bh	-14906
▁DR	-14907
▁EU	-14908
▁kg	-14909
Bahn	-14910
abul	-14911
bart	-14912
gner	-14913
strö	-14914
ödie	-14915
▁Dün	-14916
▁Mer	-14917
▁Neg	-14918
▁Oel	-14919
[...]
